<unk>	0
<pad>	0
<bos>	0
<eos>	0
<system>	0
<user>	0
<assistant>	0
an	-0
▁t	-1
in	-2
he	-3
▁a	-4
er	-5
on	-6
▁s	-7
▁n	-8
▁the	-9
or	-10
at	-11
is	-12
al	-13
ar	-14
es	-15
en	-16
▁m	-17
it	-18
▁p	-19
▁w	-20
▁an	-21
▁b	-22
▁o	-23
ed	-24
as	-25
▁|	-26
re	-27
▁c	-28
▁of	-29
ang	-30
▁f	-31
ing	-32
▁S	-33
▁in	-34
il	-35
▁A	-36
▁||	-37
ic	-38
ro	-39
▁and	-40
ag	-41
▁T	-42
▁h	-43
▁d	-44
am	-45
un	-46
▁M	-47
▁sa	-48
▁l	-49
▁ng	-50
▁k	-51
us	-52
▁to	-53
▁C	-54
ig	-55
ay	-56
ol	-57
ion	-58
el	-59
▁P	-60
▁I	-61
▁(	-62
ul	-63
ad	-64
om	-65
id	-66
▁is	-67
ur	-68
▁B	-69
ent	-70
▁na	-71
▁H	-72
le	-73
ut	-74
ga	-75
im	-76
et	-77
▁at	-78
▁R	-79
▁The	-80
▁th	-81
▁L	-82
ak	-83
ong	-84
ac	-85
▁g	-86
ec	-87
os	-88
ot	-89
▁was	-90
ir	-91
▁N	-92
▁D	-93
em	-94
ap	-95
▁ang	-96
um	-97
▁al	-98
▁K	-99
▁G	-100
▁F	-101
ab	-102
her	-103
ter	-104
▁E	-105
ver	-106
▁mga	-107
▁on	-108
ow	-109
▁re	-110
▁for	-111
▁J	-112
▁W	-113
ch	-114
ik	-115
ist	-116
▁e	-117
and	-118
▁O	-119
ly	-120
ve	-121
st	-122
ah	-123
▁it	-124
ht	-125
ation	-126
ef	-127
▁as	-128
▁ay	-129
▁r	-130
ber	-131
▁st	-132
od	-133
ip	-134
ian	-135
op	-136
ith	-137
aw	-138
▁he	-139
ight	-140
est	-141
ug	-142
ce	-143
▁An	-144
▁be	-145
up	-146
▁In	-147
oc	-148
▁that	-149
▁with	-150
iy	-151
▁wh	-152
rom	-153
ct	-154
art	-155
▁U	-156
▁–	-157
▁by	-158
ia	-159
ib	-160
ers	-161
▁"	-162
ess	-163
all	-164
ill	-165
▁—	-166
▁pag	-167
ant	-168
ign	-169
if	-170
ep	-171
ain	-172
▁from	-173
ate	-174
und	-175
ort	-176
ub	-177
▁It	-178
▁are	-179
▁or	-180
▁He	-181
ies	-182
iv	-183
ard	-184
ud	-185
▁his	-186
ary	-187
▁pro	-188
ew	-189
ov	-190
▁com	-191
ok	-192
▁V	-193
ity	-194
og	-195
▁St	-196
ear	-197
▁v	-198
▁y	-199
▁con	-200
olor	-201
ust	-202
eb	-203
▁Ang	-204
▁Ch	-205
mer	-206
ember	-207
▁pl	-208
th	-209
any	-210
right	-211
ich	-212
▁isang	-213
ect	-214
▁km	-215
ilang	-216
ast	-217
color	-218
▁|-	-219
ame	-220
▁align	-221
gcolor	-222
=#	-223
ore	-224
▁bgcolor	-225
▁ch	-226
out	-227
ish	-228
ung	-229
our	-230
ther	-231
end	-232
ell	-233
ans	-234
unt	-235
qu	-236
ri	-237
enc	-238
▁sh	-239
ory	-240
▁not	-241
av	-242
▁Un	-243
ere	-244
),	-245
▁nag	-246
▁no	-247
ev	-248
ost	-249
so	-250
ind	-251
ous	-252
ive	-253
▁tr	-254
▁co	-255
ine	-256
ack	-257
rit	-258
ave	-259
se	-260
ial	-261
iya	-262
▁us	-263
ord	-264
▁se	-265
▁ex	-266
▁were	-267
▁sp	-268
▁Th	-269
ld	-270
ican	-271
res	-272
▁Mar	-273
▁had	-274
ated	-275
amp	-276
orn	-277
yon	-278
▁Amer	-279
ge	-280
uc	-281
▁ar	-282
ome	-283
▁Y	-284
ie	-285
ob	-286
ences	-287
hen	-288
uk	-289
▁which	-290
).	-291
ry	-292
to	-293
ment	-294
ra	-295
ula	-296
ork	-297
uld	-298
ou	-299
ide	-300
▁also	-301
ure	-302
▁have	-303
own	-304
▁her	-305
ala	-306
▁-	-307
▁Ref	-308
▁Al	-309
▁ab	-310
erences	-311
ical	-312
▁up	-313
irst	-314
▁References	-315
▁they	-316
ass	-317
per	-318
▁has	-319
▁may	-320
ime	-321
ue	-322
EA	-323
▁bec	-324
▁de	-325
▁pang	-326
ey	-327
▁di	-328
eop	-329
ions	-330
▁par	-331
man	-332
▁un	-333
▁Soc	-334
▁Ar	-335
ice	-336
iz	-337
▁but	-338
eople	-339
▁can	-340
ond	-341
▁one	-342
▁first	-343
land	-344
ff	-345
▁noong	-346
▁go	-347
ugh	-348
age	-349
▁American	-350
▁fo	-351
▁their	-352
▁“	-353
▁comp	-354
ater	-355
ult	-356
fter	-357
orro	-358
▁part	-359
IN	-360
ite	-361
les	-362
▁j	-363
▁play	-364
iver	-365
▁ro	-366
▁ni	-367
ade	-368
▁all	-369
oy	-370
eg	-371
ace	-372
▁pin	-373
ens	-374
EAR	-375
▁Socorro	-376
▁LIN	-377
▁LINEAR	-378
ran	-379
ina	-380
▁this	-381
ach	-382
▁si	-383
uary	-384
▁kn	-385
▁ito	-386
ath	-387
▁people	-388
▁cl	-389
▁so	-390
▁him	-391
▁other	-392
aus	-393
ational	-394
▁En	-395
▁me	-396
ence	-397
▁who	-398
▁mak	-399
ates	-400
▁act	-401
pr	-402
▁she	-403
cl	-404
io	-405
ree	-406
pp	-407
oh	-408
▁ser	-409
orm	-410
old	-411
ould	-412
▁bilang	-413
ited	-414
wo	-415
tern	-416
angg	-417
▁pr	-418
uch	-419
ict	-420
ks	-421
▁im	-422
efe	-423
ook	-424
port	-425
one	-426
▁mag	-427
▁She	-428
ild	-429
▁pol	-430
orld	-431
hed	-432
ons	-433
te	-434
▁On	-435
pl	-436
ept	-437
▁te	-438
act	-439
ya	-440
ays	-441
ally	-442
ubl	-443
eng	-444
ick	-445
▁do	-446
very	-447
▁ad	-448
▁el	-449
rop	-450
▁dis	-451
ire	-452
ings	-453
ward	-454
▁its	-455
▁mat	-456
▁res	-457
ih	-458
wn	-459
▁them	-460
▁year	-461
▁This	-462
▁pan	-463
▁call	-464
▁about	-465
▁May	-466
▁sc	-467
int	-468
▁As	-469
▁le	-470
▁Is	-471
ident	-472
ober	-473
ike	-474
▁man	-475
ayan	-476
ateg	-477
are	-478
▁cont	-479
▁Sp	-480
fer	-481
▁mov	-482
ebs	-483
ipin	-484
fef	-485
fefefe	-486
yo	-487
ail	-488
ont	-489
ations	-490
▁been	-491
uh	-492
▁Sh	-493
uring	-494
▁Pr	-495
ark	-496
ika	-497
ile	-498
▁after	-499
hy	-500
▁out	-501
▁New	-502
▁work	-503
▁They	-504
ategory	-505
ose	-506
▁webs	-507
▁time	-508
▁made	-509
▁ac	-510
▁pam	-511
ors	-512
ito	-513
▁Sa	-514
lo	-515
▁nak	-516
▁ta	-517
▁per	-518
▁two	-519
▁mula	-520
▁more	-521
▁into	-522
ren	-523
iss	-524
alaw	-525
ition	-526
▁Mga	-527
▁when	-528
ategorya	-529
iw	-530
eptember	-531
we	-532
reat	-533
▁Kategorya	-534
▁ib	-535
▁United	-536
▁called	-537
▁kan	-538
itt	-539
ents	-540
ama	-541
▁there	-542
als	-543
ins	-544
▁gro	-545
gan	-546
▁September	-547
pt	-548
▁Other	-549
▁para	-550
▁Le	-551
ari	-552
ites	-553
ism	-554
urn	-555
here	-556
asyon	-557
ata	-558
▁used	-559
gain	-560
ral	-561
▁we	-562
▁would	-563
ics	-564
▁ne	-565
erm	-566
erson	-567
▁kany	-568
▁many	-569
▁ev	-570
ause	-571
▁over	-572
ount	-573
clud	-574
▁most	-575
▁Jan	-576
▁Ind	-577
▁bu	-578
▁Com	-579
▁kas	-580
▁Z	-581
ebr	-582
▁you	-583
▁ma	-584
▁pagk	-585
ife	-586
uct	-587
rap	-588
ress	-589
ance	-590
▁app	-591
oll	-592
▁off	-593
ivers	-594
▁known	-595
able	-596
ten	-597
ince	-598
▁mus	-599
ily	-600
ener	-601
ased	-602
▁Eng	-603
inal	-604
ctober	-605
ool	-606
ase	-607
az	-608
▁includ	-609
ock	-610
▁mal	-611
ahan	-612
ely	-613
indi	-614
outh	-615
▁And	-616
▁kanyang	-617
hip	-618
▁rec	-619
hes	-620
▁comm	-621
▁mar	-622
ila	-623
ern	-624
▁October	-625
awa	-626
▁polit	-627
▁nam	-628
vern	-629
ano	-630
▁str	-631
▁bet	-632
▁some	-633
igh	-634
▁said	-635
ton	-636
▁Sc	-637
ugust	-638
under	-639
ake	-640
ician	-641
▁than	-642
ek	-643
ied	-644
▁March	-645
olog	-646
amb	-647
▁again	-648
ular	-649
anc	-650
▁At	-651
ball	-652
alang	-653
itan	-654
▁des	-655
une	-656
ann	-657
▁sing	-658
▁am	-659
▁websites	-660
▁Tr	-661
ught	-662
▁siya	-663
▁Dec	-664
▁August	-665
▁lar	-666
▁Nov	-667
▁only	-668
▁art	-669
uan	-670
▁qu	-671
▁att	-672
ier	-673
▁January	-674
▁Fran	-675
ash	-676
▁like	-677
ating	-678
iyang	-679
resident	-680
ita	-681
son	-682
▁Br	-683
▁States	-684
▁writ	-685
ll	-686
▁new	-687
▁No	-688
▁count	-689
air	-690
ather	-691
der	-692
▁became	-693
▁gr	-694
▁years	-695
▁pre	-696
oth	-697
uw	-698
▁Joh	-699
other	-700
▁Pro	-701
▁ind	-702
▁Aust	-703
orth	-704
▁will	-705
▁po	-706
way	-707
emb	-708
▁Brit	-709
ica	-710
red	-711
▁sec	-712
ale	-713
▁.	-714
▁December	-715
▁hindi	-716
▁Cl	-717
▁pop	-718
▁sup	-719
▁died	-720
▁sy	-721
ese	-722
ts	-723
".	-724
▁Jul	-725
▁Apr	-726
▁where	-727
▁prod	-728
apan	-729
ars	-730
▁dif	-731
ower	-732
ara	-733
chool	-734
ilipin	-735
ne	-736
▁November	-737
▁bl	-738
ink	-739
▁rel	-740
▁World	-741
▁Q	-742
gr	-743
▁Gr	-744
▁fam	-745
round	-746
ision	-747
▁my	-748
ters	-749
▁elect	-750
born	-751
atag	-752
▁fl	-753
▁found	-754
imes	-755
iversity	-756
att	-757
ebruary	-758
▁very	-759
cess	-760
eth	-761
alak	-762
ween	-763
idad	-764
ement	-765
efore	-766
ouse	-767
umber	-768
elf	-769
co	-770
istr	-771
▁Car	-772
▁then	-773
▁thro	-774
uss	-775
inn	-776
▁John	-777
▁Ph	-778
▁April	-779
▁born	-780
ood	-781
rist	-782
▁bro	-783
ograp	-784
▁because	-785
xt	-786
▁mon	-787
alan	-788
▁form	-789
enn	-790
▁start	-791
▁such	-792
▁Ital	-793
amit	-794
▁did	-795
▁fe	-796
▁February	-797
▁under	-798
oman	-799
▁cent	-800
iet	-801
▁member	-802
pap	-803
▁kat	-804
▁nito	-805
ough	-806
▁sm	-807
▁dr	-808
iko	-809
ph	-810
resent	-811
▁Ad	-812
ino	-813
ove	-814
ros	-815
▁could	-816
ert	-817
lish	-818
ames	-819
▁Pilipin	-820
▁reg	-821
▁ag	-822
▁long	-823
inis	-824
▁Pal	-825
▁nang	-826
▁between	-827
▁kung	-828
oss	-829
▁stud	-830
otball	-831
ient	-832
▁kar	-833
▁Ab	-834
▁For	-835
ever	-836
iel	-837
▁name	-838
▁end	-839
ise	-840
abas	-841
▁King	-842
evel	-843
ron	-844
unc	-845
▁dire	-846
▁Or	-847
▁There	-848
▁during	-849
▁unt	-850
pen	-851
ma	-852
▁Pl	-853
aman	-854
▁Con	-855
ury	-856
▁mas	-857
iyon	-858
▁show	-859
▁sim	-860
▁nat	-861
iam	-862
ual	-863
ago	-864
ley	-865
▁number	-866
▁Col	-867
bum	-868
▁en	-869
ason	-870
form	-871
▁July	-872
▁War	-873
▁hal	-874
▁Bl	-875
ublic	-876
ets	-877
▁Me	-878
▁University	-879
▁Eu	-880
ado	-881
ious	-882
ix	-883
Mga	-884
▁sub	-885
ada	-886
ech	-887
vers	-888
▁Em	-889
ried	-890
ahil	-891
▁spec	-892
ump	-893
ists	-894
oon	-895
▁dec	-896
▁back	-897
erv	-898
▁Par	-899
▁ed	-900
▁differ	-901
▁through	-902
▁rele	-903
▁any	-904
▁pa	-905
▁Can	-906
istory	-907
▁Ed	-908
▁car	-909
▁group	-910
▁sum	-911
▁before	-912
ives	-913
▁inter	-914
▁kap	-915
eak	-916
apos	-917
▁pat	-918
ft	-919
▁mod	-920
ution	-921
aya	-922
ures	-923
▁char	-924
▁hum	-925
▁med	-926
▁three	-927
▁rem	-928
▁ga	-929
▁cons	-930
asa	-931
▁Ma	-932
▁upang	-933
▁English	-934
aba	-935
▁Rep	-936
ities	-937
▁team	-938
ually	-939
ett	-940
▁kab	-941
▁Man	-942
▁if	-943
ean	-944
▁British	-945
yong	-946
▁din	-947
▁Europ	-948
▁movie	-949
▁serv	-950
▁later	-951
",	-952
my	-953
yp	-954
▁govern	-955
▁cr	-956
ilm	-957
▁&	-958
▁Mus	-959
▁world	-960
▁ret	-961
▁June	-962
▁Ge	-963
▁make	-964
ines	-965
▁Wh	-966
ili	-967
ital	-968
▁song	-969
▁tin	-970
▁direct	-971
ull	-972
▁hel	-973
ret	-974
▁National	-975
▁II	-976
▁life	-977
ived	-978
▁rep	-979
▁city	-980
ha	-981
ject	-982
▁est	-983
erman	-984
▁album	-985
anggun	-986
▁cre	-987
▁politician	-988
▁different	-989
▁being	-990
ank	-991
ana	-992
▁main	-993
▁His	-994
▁br	-995
▁bel	-996
▁person	-997
str	-998
▁lead	-999
.”	-1000
aring	-1001
urr	-1002
▁own	-1003
▁ear	-1004
stem	-1005
▁these	-1006
ling	-1007
ange	-1008
icial	-1009
▁child	-1010
anggunian	-1011
▁well	-1012
▁second	-1013
▁football	-1014
▁old	-1015
kt	-1016
its	-1017
▁Am	-1018
▁El	-1019
▁until	-1020
hem	-1021
▁same	-1022
na	-1023
▁hangg	-1024
atch	-1025
▁Noong	-1026
▁col	-1027
▁tel	-1028
ative	-1029
▁Pilipinas	-1030
▁La	-1031
▁All	-1032
▁played	-1033
▁against	-1034
▁ent	-1035
stit	-1036
▁trans	-1037
ura	-1038
aka	-1039
ungs	-1040
▁bah	-1041
agi	-1042
agang	-1043
▁kal	-1044
▁gin	-1045
ott	-1046
ird	-1047
ional	-1048
aga	-1049
▁After	-1050
ural	-1051
▁say	-1052
▁Japan	-1053
ium	-1054
ollow	-1055
els	-1056
▁how	-1057
▁inv	-1058
▁met	-1059
ero	-1060
▁gu	-1061
▁ob	-1062
ody	-1063
▁,	-1064
▁now	-1065
▁sl	-1066
▁Pol	-1067
amang	-1068
ternational	-1069
alawang	-1070
▁mil	-1071
▁bo	-1072
ific	-1073
rench	-1074
▁what	-1075
▁Bar	-1076
▁sur	-1077
ants	-1078
▁dep	-1079
ful	-1080
▁won	-1081
▁cap	-1082
▁Go	-1083
▁Gu	-1084
omet	-1085
▁series	-1086
sp	-1087
cc	-1088
▁help	-1089
▁sin	-1090
▁acc	-1091
▁player	-1092
▁em	-1093
▁Austral	-1094
ungsod	-1095
▁kill	-1096
▁President	-1097
▁Be	-1098
iew	-1099
omen	-1100
▁York	-1101
let	-1102
▁De	-1103
▁small	-1104
▁South	-1105
isyon	-1106
ible	-1107
▁San	-1108
▁ph	-1109
▁Co	-1110
ered	-1111
ahat	-1112
▁down	-1113
alk	-1114
▁use	-1115
▁Fl	-1116
▁niya	-1117
▁Award	-1118
anda	-1119
▁war	-1120
pis	-1121
amag	-1122
▁French	-1123
ished	-1124
atay	-1125
▁Te	-1126
▁X	-1127
▁Se	-1128
▁lang	-1129
ces	-1130
ague	-1131
▁How	-1132
fr	-1133
▁four	-1134
▁ass	-1135
▁Cal	-1136
ty	-1137
imb	-1138
ner	-1139
eneral	-1140
▁book	-1141
▁Christ	-1142
▁Comm	-1143
iber	-1144
awan	-1145
yal	-1146
▁int	-1147
▁music	-1148
▁Part	-1149
▁age	-1150
."	-1151
▁pinak	-1152
▁released	-1153
ck	-1154
▁sanggunian	-1155
▁often	-1156
▁iba	-1157
onom	-1158
▁near	-1159
cr	-1160
ole	-1161
▁law	-1162
uth	-1163
▁government	-1164
The	-1165
▁pags	-1166
▁Russ	-1167
▁kanilang	-1168
ains	-1169
ista	-1170
▁Si	-1171
ampions	-1172
ats	-1173
▁Re	-1174
▁follow	-1175
bo	-1176
▁land	-1177
ald	-1178
lect	-1179
▁Her	-1180
ator	-1181
ipal	-1182
,”	-1183
sh	-1184
▁day	-1185
▁sal	-1186
oung	-1187
▁German	-1188
▁Nag	-1189
▁min	-1190
▁system	-1191
ology	-1192
▁Will	-1193
ield	-1194
▁Pag	-1195
▁ka	-1196
ones	-1197
rest	-1198
▁es	-1199
▁bag	-1200
▁kom	-1201
urg	-1202
▁while	-1203
▁Har	-1204
▁Est	-1205
asan	-1206
yn	-1207
hern	-1208
▁dahil	-1209
▁air	-1210
▁Sw	-1211
rog	-1212
▁il	-1213
ipp	-1214
led	-1215
▁record	-1216
▁rin	-1217
ute	-1218
angan	-1219
▁word	-1220
▁loc	-1221
ulo	-1222
▁lab	-1223
▁place	-1224
▁unang	-1225
ene	-1226
ble	-1227
ai	-1228
▁state	-1229
▁When	-1230
▁lum	-1231
▁right	-1232
igan	-1233
ison	-1234
▁both	-1235
self	-1236
▁tak	-1237
ness	-1238
▁pal	-1239
▁pass	-1240
▁actor	-1241
inister	-1242
▁last	-1243
▁death	-1244
▁City	-1245
▁organ	-1246
ilala	-1247
get	-1248
ony	-1249
rol	-1250
▁appear	-1251
ulat	-1252
evelop	-1253
▁way	-1254
▁started	-1255
reen	-1256
anan	-1257
▁look	-1258
fl	-1259
▁Cent	-1260
uck	-1261
fess	-1262
▁sign	-1263
app	-1264
alo	-1265
▁water	-1266
▁head	-1267
ross	-1268
▁came	-1269
▁Char	-1270
▁isa	-1271
▁hanggang	-1272
▁prov	-1273
iving	-1274
▁lo	-1275
▁bin	-1276
▁run	-1277
▁But	-1278
▁family	-1279
aint	-1280
evision	-1281
illion	-1282
▁anim	-1283
▁hand	-1284
▁panah	-1285
▁area	-1286
▁high	-1287
ulad	-1288
▁named	-1289
▁around	-1290
▁'	-1291
▁pagt	-1292
▁North	-1293
▁bar	-1294
▁sk	-1295
atang	-1296
no	-1297
▁even	-1298
▁since	-1299
▁sever	-1300
ows	-1301
dom	-1302
ittle	-1303
▁Bro	-1304
▁game	-1305
▁da	-1306
▁kay	-1307
ali	-1308
gy	-1309
ound	-1310
▁Phil	-1311
arth	-1312
ized	-1313
▁pos	-1314
▁tag	-1315
ka	-1316
ages	-1317
▁inc	-1318
▁including	-1319
▁Geor	-1320
▁Ale	-1321
abang	-1322
by	-1323
▁ika	-1324
atapos	-1325
▁bas	-1326
inc	-1327
era	-1328
▁saan	-1329
▁band	-1330
▁good	-1331
ms	-1332
▁much	-1333
amm	-1334
..	-1335
▁add	-1336
ng	-1337
▁began	-1338
▁each	-1339
▁Dis	-1340
mp	-1341
umb	-1342
▁went	-1343
eft	-1344
▁import	-1345
tr	-1346
gest	-1347
▁Pa	-1348
ampionship	-1349
ined	-1350
▁langu	-1351
▁charac	-1352
uri	-1353
▁singer	-1354
rem	-1355
▁nags	-1356
ady	-1357
ler	-1358
uction	-1359
ode	-1360
ulang	-1361
▁popul	-1362
the	-1363
ric	-1364
ger	-1365
▁tum	-1366
au	-1367
▁produc	-1368
wa	-1369
▁imp	-1370
rew	-1371
ihan	-1372
▁bus	-1373
▁Some	-1374
▁pagl	-1375
ries	-1376
▁kin	-1377
uy	-1378
agan	-1379
▁naging	-1380
▁School	-1381
apag	-1382
ida	-1383
OS	-1384
▁bahagi	-1385
areer	-1386
▁school	-1387
▁power	-1388
▁Ag	-1389
▁get	-1390
omb	-1391
unit	-1392
▁country	-1393
▁US	-1394
urch	-1395
eter	-1396
uo	-1397
jor	-1398
▁pagb	-1399
▁great	-1400
▁still	-1401
ience	-1402
▁Med	-1403
▁should	-1404
▁term	-1405
ney	-1406
▁every	-1407
anta	-1408
▁la	-1409
▁These	-1410
▁see	-1411
▁ipin	-1412
▁oper	-1413
riend	-1414
side	-1415
istrict	-1416
omin	-1417
▁Rel	-1418
arian	-1419
▁ap	-1420
iness	-1421
▁Ex	-1422
▁attack	-1423
▁Ass	-1424
▁just	-1425
▁sent	-1426
▁left	-1427
aming	-1428
▁lungsod	-1429
ikong	-1430
▁upon	-1431
una	-1432
▁tao	-1433
ected	-1434
amagitan	-1435
▁typ	-1436
▁best	-1437
cept	-1438
ze	-1439
▁several	-1440
▁know	-1441
aces	-1442
ought	-1443
ikal	-1444
for	-1445
▁Sup	-1446
▁Roman	-1447
▁prot	-1448
▁orig	-1449
▁ter	-1450
▁film	-1451
▁pamamagitan	-1452
▁town	-1453
▁rul	-1454
unan	-1455
▁former	-1456
▁children	-1457
▁Per	-1458
▁Count	-1459
▁put	-1460
▁men	-1461
▁caus	-1462
▁national	-1463
▁list	-1464
que	-1465
ices	-1466
▁del	-1467
▁open	-1468
▁progr	-1469
unod	-1470
▁One	-1471
osed	-1472
eder	-1473
▁develop	-1474
vent	-1475
▁Ito	-1476
▁Afr	-1477
▁soc	-1478
iter	-1479
irl	-1480
▁Mal	-1481
▁large	-1482
apat	-1483
▁season	-1484
ography	-1485
▁trad	-1486
atagp	-1487
▁Dav	-1488
omar	-1489
la	-1490
▁bre	-1491
▁suc	-1492
▁itin	-1493
▁another	-1494
▁tit	-1495
ature	-1496
▁William	-1497
▁bans	-1498
▁ibang	-1499
▁mah	-1500
▁build	-1501
▁France	-1502
▁Bo	-1503
da	-1504
ief	-1505
day	-1506
▁Mc	-1507
kl	-1508
▁actress	-1509
▁home	-1510
uel	-1511
▁important	-1512
▁television	-1513
▁took	-1514
▁Sy	-1515
atic	-1516
▁def	-1517
▁fr	-1518
embre	-1519
▁hig	-1520
ired	-1521
▁examp	-1522
▁International	-1523
▁We	-1524
hys	-1525
▁Dr	-1526
▁leg	-1527
▁Kar	-1528
▁Palomar	-1529
idd	-1530
▁gl	-1531
yembre	-1532
▁thought	-1533
▁sw	-1534
cer	-1535
uhay	-1536
▁eng	-1537
▁However	-1538
ilt	-1539
hel	-1540
ena	-1541
angk	-1542
ento	-1543
▁League	-1544
▁father	-1545
▁live	-1546
ta	-1547
lands	-1548
arm	-1549
▁kah	-1550
ulong	-1551
atagpuan	-1552
ues	-1553
han	-1554
▁Ser	-1555
awag	-1556
▁Sec	-1557
▁tem	-1558
▁things	-1559
▁ide	-1560
istor	-1561
▁dist	-1562
uff	-1563
▁Lond	-1564
unah	-1565
▁want	-1566
ians	-1567
ste	-1568
▁Party	-1569
iven	-1570
▁big	-1571
▁common	-1572
▁[	-1573
▁mun	-1574
ior	-1575
▁kaniyang	-1576
▁sol	-1577
attle	-1578
▁chang	-1579
▁early	-1580
com	-1581
ilangan	-1582
ane	-1583
▁single	-1584
ams	-1585
▁um	-1586
ris	-1587
▁publ	-1588
esa	-1589
ection	-1590
rod	-1591
▁young	-1592
ple	-1593
hi	-1594
▁ant	-1595
▁bayan	-1596
ato	-1597
long	-1598
▁Mon	-1599
▁Bel	-1600
▁must	-1601
alik	-1602
▁House	-1603
▁century	-1604
▁History	-1605
ye	-1606
ured	-1607
ided	-1608
ador	-1609
urned	-1610
alth	-1611
▁Minister	-1612
▁ilang	-1613
por	-1614
ize	-1615
tain	-1616
▁million	-1617
ius	-1618
▁president	-1619
▁State	-1620
work	-1621
▁ext	-1622
▁maa	-1623
▁popular	-1624
ayon	-1625
▁Miss	-1626
ikang	-1627
▁vers	-1628
▁resp	-1629
▁London	-1630
row	-1631
▁exp	-1632
ke	-1633
▁usually	-1634
ised	-1635
ham	-1636
ugar	-1637
▁panahon	-1638
▁your	-1639
▁profess	-1640
EAT	-1641
▁Germ	-1642
che	-1643
ides	-1644
▁milit	-1645
▁jo	-1646
▁Championship	-1647
▁You	-1648
▁official	-1649
iev	-1650
aster	-1651
▁Sen	-1652
ideo	-1653
▁pinakam	-1654
▁NEAT	-1655
▁cour	-1656
▁West	-1657
▁point	-1658
▁take	-1659
▁contin	-1660
▁times	-1661
oci	-1662
aced	-1663
▁public	-1664
▁pangk	-1665
aut	-1666
adem	-1667
ismo	-1668
aving	-1669
▁Qu	-1670
▁short	-1671
▁England	-1672
ope	-1673
ometimes	-1674
uz	-1675
▁Off	-1676
▁frog	-1677
▁body	-1678
uling	-1679
▁set	-1680
unang	-1681
▁design	-1682
▁writer	-1683
▁light	-1684
alim	-1685
▁Rom	-1686
nd	-1687
▁Mag	-1688
▁example	-1689
▁India	-1690
▁rece	-1691
▁little	-1692
▁support	-1693
▁Im	-1694
▁means	-1695
▁Spac	-1696
▁Indian	-1697
ility	-1698
▁Kitt	-1699
ency	-1700
▁Govern	-1701
ently	-1702
▁history	-1703
▁might	-1704
▁those	-1705
uno	-1706
▁ngunit	-1707
osp	-1708
▁pap	-1709
▁To	-1710
▁My	-1711
▁along	-1712
▁need	-1713
ON	-1714
ning	-1715
epend	-1716
▁taon	-1717
▁Pang	-1718
▁dalawang	-1719
ots	-1720
▁result	-1721
▁kasama	-1722
▁Peak	-1723
▁Ta	-1724
▁away	-1725
▁rest	-1726
rote	-1727
▁sold	-1728
▁son	-1729
▁does	-1730
ille	-1731
ungk	-1732
▁commun	-1733
▁cond	-1734
▁come	-1735
ape	-1736
▁Spacew	-1737
ky	-1738
▁Spacewatch	-1739
iling	-1740
▁website	-1741
▁Mich	-1742
▁lamang	-1743
▁Kore	-1744
▁div	-1745
--	-1746
▁occ	-1747
urs	-1748
▁Jos	-1749
▁God	-1750
▁top	-1751
ico	-1752
▁Sm	-1753
▁women	-1754
▁So	-1755
▁eff	-1756
▁never	-1757
▁Mor	-1758
iod	-1759
▁Hol	-1760
ival	-1761
ves	-1762
▁Tur	-1763
agamit	-1764
lim	-1765
uthor	-1766
min	-1767
estern	-1768
▁Cup	-1769
iwang	-1770
▁Sal	-1771
▁Ev	-1772
▁created	-1773
▁Kingdom	-1774
▁Ber	-1775
▁nasa	-1776
▁rev	-1777
▁pages	-1778
lal	-1779
▁America	-1780
▁without	-1781
▁Ro	-1782
▁pagpap	-1783
▁Kas	-1784
uns	-1785
▁proble	-1786
artment	-1787
aran	-1788
▁species	-1789
▁Ac	-1790
▁Air	-1791
akas	-1792
▁Gl	-1793
▁based	-1794
▁red	-1795
igay	-1796
▁let	-1797
▁friend	-1798
unahing	-1799
▁become	-1800
▁Italian	-1801
▁Mr	-1802
▁Sch	-1803
▁got	-1804
▁heart	-1805
▁Dem	-1806
ush	-1807
eep	-1808
illa	-1809
med	-1810
echn	-1811
press	-1812
istan	-1813
▁nap	-1814
▁Australia	-1815
ee	-1816
▁ref	-1817
imog	-1818
abi	-1819
lege	-1820
raz	-1821
ved	-1822
▁Mart	-1823
▁lahat	-1824
ilar	-1825
?”	-1826
ared	-1827
▁class	-1828
ales	-1829
▁major	-1830
▁rad	-1831
▁People	-1832
▁Act	-1833
▁James	-1834
▁language	-1835
▁pinag	-1836
▁footballer	-1837
eh	-1838
▁Germany	-1839
anya	-1840
▁character	-1841
yl	-1842
▁find	-1843
▁think	-1844
ij	-1845
uter	-1846
▁beg	-1847
▁few	-1848
▁Rober	-1849
▁expl	-1850
▁include	-1851
ued	-1852
▁company	-1853
▁countries	-1854
ahala	-1855
aysayan	-1856
▁career	-1857
▁Cr	-1858
ria	-1859
▁written	-1860
ocr	-1861
▁esp	-1862
ery	-1863
tor	-1864
▁success	-1865
▁Don	-1866
ourn	-1867
▁Anderson	-1868
▁camp	-1869
▁Cor	-1870
▁Comp	-1871
▁members	-1872
irc	-1873
burg	-1874
iforn	-1875
▁panl	-1876
iyos	-1877
lymp	-1878
earch	-1879
▁real	-1880
oice	-1881
ote	-1882
wards	-1883
ander	-1884
rid	-1885
▁wrote	-1886
▁stop	-1887
▁Rec	-1888
▁mean	-1889
oloh	-1890
ways	-1891
olution	-1892
ael	-1893
▁gum	-1894
▁mother	-1895
▁ec	-1896
▁Gre	-1897
anish	-1898
▁During	-1899
ches	-1900
obs	-1901
▁lik	-1902
pin	-1903
▁human	-1904
▁Lou	-1905
▁mab	-1906
ards	-1907
isa	-1908
▁nagt	-1909
rael	-1910
▁too	-1911
▁gen	-1912
▁Japanese	-1913
ivil	-1914
apit	-1915
▁given	-1916
lam	-1917
▁stand	-1918
ifornia	-1919
▁order	-1920
bol	-1921
ayo	-1922
aling	-1923
▁Olymp	-1924
▁beh	-1925
▁built	-1926
▁Related	-1927
▁maaaring	-1928
yan	-1929
▁vari	-1930
▁repl	-1931
▁Port	-1932
ford	-1933
▁present	-1934
▁bansa	-1935
▁seen	-1936
alawigan	-1937
go	-1938
▁married	-1939
▁partic	-1940
▁Sam	-1941
▁house	-1942
▁California	-1943
ically	-1944
▁Park	-1945
▁Ne	-1946
▁Nor	-1947
▁toget	-1948
iol	-1949
▁Tom	-1950
▁together	-1951
ental	-1952
▁curr	-1953
eph	-1954
iwan	-1955
ington	-1956
ories	-1957
aro	-1958
lood	-1959
even	-1960
▁By	-1961
ying	-1962
agawa	-1963
aking	-1964
▁Cast	-1965
▁Europe	-1966
▁George	-1967
elik	-1968
▁Val	-1969
anganak	-1970
▁king	-1971
▁pangunahing	-1972
▁pagkak	-1973
▁modern	-1974
▁text	-1975
ained	-1976
▁Jo	-1977
▁lugar	-1978
▁tw	-1979
ift	-1980
▁moved	-1981
atas	-1982
▁worked	-1983
sc	-1984
▁reh	-1985
▁business	-1986
▁held	-1987
▁If	-1988
▁Mad	-1989
▁Many	-1990
▁Art	-1991
line	-1992
▁famous	-1993
ission	-1994
▁From	-1995
▁Res	-1996
▁Min	-1997
▁Jack	-1998
▁ever	-1999
men	-2000
▁matatagpuan	-2001
af	-2002
▁Que	-2003
▁killed	-2004
▁val	-2005
▁Ob	-2006
ko	-2007
most	-2008
▁Pin	-2009
ami	-2010
▁River	-2011
etwork	-2012
▁Rich	-2013
▁County	-2014
itions	-2015
atlong	-2016
ization	-2017
▁contr	-2018
▁vis	-2019
ended	-2020
▁Israel	-2021
▁himself	-2022
▁tulad	-2023
▁dem	-2024
ases	-2025
de	-2026
▁Russian	-2027
▁prom	-2028
▁European	-2029
▁month	-2030
▁color	-2031
lin	-2032
▁cult	-2033
▁Hen	-2034
aur	-2035
ertain	-2036
▁Pan	-2037
▁lim	-2038
▁Nob	-2039
▁Mil	-2040
▁Union	-2041
aim	-2042
▁Ben	-2043
adian	-2044
raft	-2045
▁five	-2046
▁poss	-2047
udd	-2048
less	-2049
▁equ	-2050
ugn	-2051
▁video	-2052
▁Ts	-2053
ira	-2054
▁anno	-2055
▁Paul	-2056
▁using	-2057
lur	-2058
ox	-2059
uit	-2060
▁Best	-2061
▁side	-2062
aves	-2063
ados	-2064
▁six	-2065
▁pres	-2066
▁Mesa	-2067
▁third	-2068
▁Dep	-2069
▁hil	-2070
▁political	-2071
▁Do	-2072
▁days	-2073
▁Mont	-2074
kr	-2075
berg	-2076
▁pamp	-2077
ially	-2078
isipal	-2079
▁mang	-2080
ys	-2081
▁Angel	-2082
writ	-2083
▁det	-2084
▁event	-2085
▁next	-2086
ilos	-2087
atin	-2088
▁David	-2089
▁nan	-2090
▁black	-2091
▁cor	-2092
▁Sing	-2093
▁sig	-2094
▁author	-2095
ged	-2096
▁rock	-2097
ho	-2098
▁East	-2099
ects	-2100
atal	-2101
▁led	-2102
▁less	-2103
▁epis	-2104
lad	-2105
▁our	-2106
ified	-2107
▁tell	-2108
ording	-2109
edy	-2110
▁announc	-2111
▁prop	-2112
▁Not	-2113
▁Reg	-2114
ider	-2115
▁parts	-2116
▁north	-2117
cent	-2118
▁Red	-2119
▁mark	-2120
▁period	-2121
ests	-2122
▁sila	-2123
▁/	-2124
ither	-2125
▁activ	-2126
anong	-2127
mon	-2128
▁population	-2129
!”	-2130
▁ins	-2131
▁Pat	-2132
▁eas	-2133
▁Black	-2134
uha	-2135
rian	-2136
▁compet	-2137
▁Canada	-2138
▁nagb	-2139
▁far	-2140
eed	-2141
▁Alex	-2142
ours	-2143
oint	-2144
▁Italy	-2145
aas	-2146
▁Republic	-2147
aj	-2148
▁Ear	-2149
▁kind	-2150
▁hard	-2151
not	-2152
ude	-2153
▁making	-2154
▁Unid	-2155
▁strong	-2156
▁loob	-2157
▁Pri	-2158
ense	-2159
▁Robert	-2160
ced	-2161
▁Bag	-2162
▁Des	-2163
▁manag	-2164
▁descr	-2165
inning	-2166
▁version	-2167
▁among	-2168
▁sil	-2169
isipalidad	-2170
li	-2171
ids	-2172
▁High	-2173
▁story	-2174
▁aff	-2175
▁though	-2176
ister	-2177
▁Most	-2178
▁becom	-2179
▁ik	-2180
▁walang	-2181
avy	-2182
▁plan	-2183
▁Thom	-2184
▁fem	-2185
EOS	-2186
▁director	-2187
ulan	-2188
▁special	-2189
▁grow	-2190
▁compos	-2191
▁inil	-2192
▁$	-2193
ments	-2194
▁deb	-2195
▁Tag	-2196
▁region	-2197
pire	-2198
▁doc	-2199
ument	-2200
eal	-2201
▁adv	-2202
▁caused	-2203
ering	-2204
▁dest	-2205
▁maraming	-2206
iety	-2207
orthern	-2208
▁engine	-2209
▁phys	-2210
kn	-2211
▁sina	-2212
▁With	-2213
▁China	-2214
▁hap	-2215
ati	-2216
▁general	-2217
▁published	-2218
ipt	-2219
▁line	-2220
▁sound	-2221
▁gener	-2222
▁represent	-2223
▁taong	-2224
▁pangalan	-2225
II	-2226
▁som	-2227
▁av	-2228
ements	-2229
▁ask	-2230
ayang	-2231
▁fin	-2232
ex	-2233
vered	-2234
▁sometimes	-2235
▁works	-2236
▁following	-2237
▁lay	-2238
ini	-2239
itar	-2240
itz	-2241
▁vill	-2242
▁election	-2243
▁Unidos	-2244
▁exper	-2245
aff	-2246
▁allow	-2247
of	-2248
urb	-2249
▁histor	-2250
▁Charles	-2251
▁win	-2252
▁Roy	-2253
atawag	-2254
bert	-2255
▁aw	-2256
aine	-2257
▁south	-2258
.,	-2259
eum	-2260
▁LON	-2261
▁bum	-2262
▁Grand	-2263
▁Flor	-2264
AS	-2265
hal	-2266
▁baba	-2267
nam	-2268
▁First	-2269
▁kil	-2270
▁LONEOS	-2271
▁Kat	-2272
▁pelik	-2273
▁Estados	-2274
▁Mo	-2275
cy	-2276
▁Ing	-2277
▁military	-2278
yle	-2279
▁night	-2280
ahang	-2281
▁stat	-2282
oph	-2283
za	-2284
▁served	-2285
▁Canadian	-2286
▁district	-2287
ona	-2288
ecut	-2289
▁saw	-2290
ki	-2291
▁Year	-2292
▁Michael	-2293
uhan	-2294
▁pak	-2295
adal	-2296
▁Christian	-2297
▁read	-2298
anger	-2299
▁white	-2300
uncil	-2301
asal	-2302
▁That	-2303
▁games	-2304
formation	-2305
atan	-2306
▁fact	-2307
ips	-2308
▁TV	-2309
▁crit	-2310
▁gave	-2311
▁others	-2312
▁Sum	-2313
▁role	-2314
lear	-2315
aral	-2316
▁feat	-2317
reek	-2318
itional	-2319
cis	-2320
asak	-2321
▁brother	-2322
▁Prime	-2323
▁BC	-2324
▁money	-2325
ournal	-2326
▁Great	-2327
yr	-2328
ached	-2329
▁arr	-2330
ae	-2331
▁anak	-2332
▁lost	-2333
▁fight	-2334
▁Mer	-2335
iddle	-2336
yes	-2337
▁artist	-2338
ream	-2339
▁received	-2340
▁Awards	-2341
▁Sant	-2342
▁rehiyon	-2343
ored	-2344
irth	-2345
▁Mary	-2346
aroon	-2347
▁Arab	-2348
FA	-2349
ped	-2350
▁Australian	-2351
▁Mex	-2352
▁party	-2353
ket	-2354
▁nagp	-2355
▁within	-2356
▁half	-2357
reet	-2358
▁araw	-2359
▁pagkatapos	-2360
▁#	-2361
▁et	-2362
undo	-2363
▁dig	-2364
ibr	-2365
sa	-2366
▁buong	-2367
▁Paris	-2368
▁relig	-2369
▁magk	-2370
▁perform	-2371
ministr	-2372
▁Bas	-2373
agd	-2374
gap	-2375
▁food	-2376
▁disco	-2377
▁largest	-2378
▁cancer	-2379
BC	-2380
▁Chin	-2381
▁level	-2382
▁Mount	-2383
flu	-2384
tal	-2385
iano	-2386
▁opp	-2387
▁Sim	-2388
read	-2389
▁siglo	-2390
▁mult	-2391
▁NY	-2392
iron	-2393
▁star	-2394
▁Gold	-2395
▁che	-2396
▁lived	-2397
uman	-2398
▁hin	-2399
adong	-2400
outhern	-2401
▁Philipp	-2402
▁control	-2403
▁Er	-2404
ughter	-2405
▁living	-2406
▁seem	-2407
itang	-2408
▁conf	-2409
ayag	-2410
▁keep	-2411
▁done	-2412
▁capital	-2413
▁pagitan	-2414
▁arch	-2415
▁professional	-2416
▁=	-2417
):	-2418
alt	-2419
oviet	-2420
▁General	-2421
olic	-2422
▁Spanish	-2423
▁Scott	-2424
uli	-2425
▁words	-2426
▁Hall	-2427
▁econom	-2428
▁fire	-2429
▁Str	-2430
writer	-2431
acy	-2432
▁Ap	-2433
▁woman	-2434
ucation	-2435
▁Ir	-2436
▁happen	-2437
uce	-2438
▁Church	-2439
▁habang	-2440
las	-2441
▁nab	-2442
▁club	-2443
▁once	-2444
ockey	-2445
▁College	-2446
▁change	-2447
▁announced	-2448
▁itong	-2449
▁host	-2450
▁leader	-2451
▁Earth	-2452
▁Louis	-2453
▁hold	-2454
▁station	-2455
▁give	-2456
ances	-2457
▁Siya	-2458
▁Day	-2459
▁ra	-2460
▁Ter	-2461
▁social	-2462
▁map	-2463
zo	-2464
dig	-2465
▁pagh	-2466
awat	-2467
utch	-2468
▁similar	-2469
▁i	-2470
▁scient	-2471
▁fun	-2472
▁mater	-2473
▁describ	-2474
▁Kh	-2475
▁report	-2476
▁Jew	-2477
▁shall	-2478
ipag	-2479
val	-2480
▁Academ	-2481
▁karan	-2482
▁model	-2483
▁List	-2484
off	-2485
ociation	-2486
▁Pak	-2487
arch	-2488
reed	-2489
▁vol	-2490
▁bi	-2491
uke	-2492
▁wife	-2493
▁fall	-2494
▁nil	-2495
▁better	-2496
▁Vir	-2497
ges	-2498
▁lear	-2499
▁Dan	-2500
▁Tel	-2501
stitution	-2502
cast	-2503
ola	-2504
▁disc	-2505
elt	-2506
ux	-2507
yang	-2508
▁Cap	-2509
bay	-2510
iers	-2511
stead	-2512
razil	-2513
▁Up	-2514
▁Bill	-2515
ender	-2516
▁Peter	-2517
▁Mat	-2518
▁bal	-2519
▁Democr	-2520
▁tre	-2521
gin	-2522
▁Del	-2523
▁Soviet	-2524
▁data	-2525
oms	-2526
▁mer	-2527
ukuy	-2528
▁Mac	-2529
▁having	-2530
▁munisipalidad	-2531
▁defe	-2532
stant	-2533
imate	-2534
▁tal	-2535
▁Sin	-2536
▁Cath	-2537
▁komp	-2538
ogn	-2539
▁independ	-2540
ops	-2541
tt	-2542
agat	-2543
ength	-2544
▁due	-2545
ords	-2546
ground	-2547
avel	-2548
view	-2549
▁kilala	-2550
pisyal	-2551
iction	-2552
itu	-2553
▁natural	-2554
ellow	-2555
▁always	-2556
▁siyang	-2557
icult	-2558
▁isin	-2559
alit	-2560
▁Richard	-2561
▁chem	-2562
▁founded	-2563
▁port	-2564
▁ilalim	-2565
▁Cong	-2566
oto	-2567
▁girl	-2568
itor	-2569
▁makes	-2570
ania	-2571
▁local	-2572
ID	-2573
vert	-2574
apon	-2575
though	-2576
▁hon	-2577
▁nov	-2578
ba	-2579
▁mount	-2580
▁musician	-2581
▁Brazil	-2582
▁round	-2583
▁kum	-2584
▁indust	-2585
iba	-2586
▁places	-2587
odes	-2588
▁Arch	-2589
▁Film	-2590
▁sar	-2591
▁field	-2592
ately	-2593
▁news	-2594
▁process	-2595
▁Bec	-2596
▁cell	-2597
▁speak	-2598
iff	-2599
▁NYS	-2600
hang	-2601
▁late	-2602
▁pagp	-2603
▁Chinese	-2604
itong	-2605
urt	-2606
▁almost	-2607
▁dating	-2608
▁here	-2609
ination	-2610
▁inf	-2611
▁panan	-2612
▁pain	-2613
ima	-2614
▁books	-2615
▁turn	-2616
iec	-2617
ella	-2618
▁full	-2619
▁("	-2620
▁Abr	-2621
uro	-2622
ym	-2623
atory	-2624
▁Ant	-2625
▁Italya	-2626
ukoy	-2627
▁Empire	-2628
▁Africa	-2629
lic	-2630
▁Super	-2631
▁dise	-2632
▁cal	-2633
▁Cour	-2634
▁Republ	-2635
▁Francis	-2636
▁international	-2637
ention	-2638
igdig	-2639
▁Then	-2640
▁fail	-2641
▁Sl	-2642
▁Rev	-2643
▁circ	-2644
alaking	-2645
▁wind	-2646
ned	-2647
▁Il	-2648
used	-2649
▁kabilang	-2650
++	-2651
now	-2652
▁Gro	-2653
▁tro	-2654
▁says	-2655
▁sym	-2656
peror	-2657
▁Henry	-2658
▁wanted	-2659
▁groups	-2660
ante	-2661
▁Met	-2662
olf	-2663
▁taken	-2664
liam	-2665
▁sett	-2666
▁Swed	-2667
ibers	-2668
▁naman	-2669
▁Wil	-2670
▁Kab	-2671
▁collect	-2672
▁Saint	-2673
▁origin	-2674
sel	-2675
oot	-2676
stand	-2677
▁nagpap	-2678
▁Thomas	-2679
▁lives	-2680
yd	-2681
ibut	-2682
▁type	-2683
▁Governor	-2684
▁lot	-2685
cient	-2686
▁Turk	-2687
amat	-2688
hat	-2689
aining	-2690
▁Music	-2691
apt	-2692
▁changed	-2693
andid	-2694
iging	-2695
▁Its	-2696
kan	-2697
▁Army	-2698
")	-2699
sw	-2700
ansang	-2701
▁akt	-2702
▁refer	-2703
▁ground	-2704
▁tinatawag	-2705
nan	-2706
▁poet	-2707
asyong	-2708
liament	-2709
rey	-2710
▁panlabas	-2711
itch	-2712
▁sea	-2713
hic	-2714
▁award	-2715
ilosop	-2716
▁lup	-2717
sy	-2718
▁Lab	-2719
ederal	-2720
ills	-2721
HL	-2722
bi	-2723
▁Stud	-2724
bon	-2725
▁problems	-2726
▁Play	-2727
akita	-2728
ora	-2729
▁Star	-2730
ror	-2731
ca	-2732
▁eyes	-2733
imula	-2734
cher	-2735
▁personal	-2736
▁Mah	-2737
▁Island	-2738
▁Av	-2739
▁Rob	-2740
ething	-2741
▁influ	-2742
▁across	-2743
▁bagong	-2744
orts	-2745
▁till	-2746
ights	-2747
▁Islam	-2748
ieve	-2749
ulug	-2750
▁river	-2751
▁kasal	-2752
▁Amerik	-2753
▁building	-2754
▁original	-2755
▁tungk	-2756
▁nomin	-2757
▁sex	-2758
abl	-2759
▁dev	-2760
▁appro	-2761
▁appeared	-2762
▁Camp	-2763
▁Wash	-2764
ubuo	-2765
▁going	-2766
▁low	-2767
ring	-2768
▁Ukr	-2769
▁Korea	-2770
oke	-2771
▁prison	-2772
roy	-2773
▁non	-2774
▁free	-2775
anap	-2776
▁enough	-2777
▁producer	-2778
epar	-2779
▁lalawigan	-2780
▁Sun	-2781
▁techn	-2782
▁title	-2783
▁return	-2784
thing	-2785
gar	-2786
▁Rad	-2787
▁Academy	-2788
▁Book	-2789
▁ener	-2790
▁mass	-2791
ny	-2792
restling	-2793
▁pun	-2794
▁Tar	-2795
▁Official	-2796
agon	-2797
ether	-2798
▁link	-2799
▁Law	-2800
▁above	-2801
▁mot	-2802
ened	-2803
▁elected	-2804
▁formed	-2805
▁Royal	-2806
▁conn	-2807
▁incre	-2808
▁Jer	-2809
▁pamb	-2810
St	-2811
aps	-2812
iting	-2813
▁don	-2814
▁buhay	-2815
▁Inter	-2816
▁Esp	-2817
▁Dutch	-2818
wood	-2819
▁Mic	-2820
▁Tor	-2821
▁ak	-2822
▁:	-2823
▁face	-2824
▁UK	-2825
▁aged	-2826
▁produced	-2827
ema	-2828
asons	-2829
LO	-2830
▁dead	-2831
▁III	-2832
▁dito	-2833
▁ill	-2834
▁Acc	-2835
▁viol	-2836
iyong	-2837
▁talk	-2838
▁object	-2839
iple	-2840
like	-2841
ibong	-2842
▁states	-2843
▁African	-2844
atives	-2845
serv	-2846
▁final	-2847
▁Trans	-2848
▁Fr	-2849
ropical	-2850
▁Hon	-2851
▁Chic	-2852
alis	-2853
▁conc	-2854
ibo	-2855
▁naglal	-2856
▁Po	-2857
▁White	-2858
akes	-2859
ction	-2860
▁Washington	-2861
Amer	-2862
▁match	-2863
,"	-2864
▁least	-2865
ably	-2866
▁boy	-2867
▁requ	-2868
vel	-2869
▁past	-2870
▁Marc	-2871
▁Da	-2872
be	-2873
▁Sur	-2874
ahalaan	-2875
▁cast	-2876
▁sel	-2877
▁Hun	-2878
▁pagg	-2879
▁neg	-2880
iding	-2881
▁ten	-2882
idge	-2883
usyon	-2884
▁included	-2885
▁Catholic	-2886
▁z	-2887
asang	-2888
ua	-2889
▁Pagk	-2890
▁movies	-2891
▁Vict	-2892
▁Ros	-2893
▁gold	-2894
▁god	-2895
▁areas	-2896
▁guitar	-2897
▁aut	-2898
alaki	-2899
▁Maria	-2900
▁Nak	-2901
ido	-2902
▁joined	-2903
▁sus	-2904
▁Los	-2905
hest	-2906
cle	-2907
▁Russia	-2908
order	-2909
▁certain	-2910
▁er	-2911
▁Sir	-2912
uloy	-2913
],	-2914
▁island	-2915
▁broad	-2916
ela	-2917
▁love	-2918
▁daughter	-2919
▁mayro	-2920
▁Pet	-2921
▁shows	-2922
▁Gar	-2923
▁District	-2924
▁feel	-2925
▁separ	-2926
ched	-2927
erb	-2928
▁Council	-2929
▁Just	-2930
▁ginagamit	-2931
▁uri	-2932
▁diff	-2933
owers	-2934
▁tatlong	-2935
▁Vol	-2936
▁Center	-2937
iqu	-2938
▁voc	-2939
▁Early	-2940
▁told	-2941
▁view	-2942
▁post	-2943
▁App	-2944
empt	-2945
▁Pakistan	-2946
▁Central	-2947
▁id	-2948
yer	-2949
▁babae	-2950
net	-2951
▁pe	-2952
olohiya	-2953
▁sat	-2954
annel	-2955
ville	-2956
▁animals	-2957
▁tub	-2958
▁comple	-2959
▁Cont	-2960
idered	-2961
▁Latin	-2962
win	-2963
alawak	-2964
▁Association	-2965
▁nila	-2966
▁whe	-2967
▁pareh	-2968
stitute	-2969
▁temper	-2970
▁Ste	-2971
▁comes	-2972
▁Iran	-2973
▁soon	-2974
▁close	-2975
▁Life	-2976
▁CO	-2977
ibersidad	-2978
▁Chicago	-2979
▁ve	-2980
atter	-2981
rial	-2982
aki	-2983
mula	-2984
▁something	-2985
▁instr	-2986
▁Prince	-2987
▁able	-2988
▁voice	-2989
▁site	-2990
ags	-2991
gypt	-2992
ilya	-2993
▁service	-2994
▁Bu	-2995
ster	-2996
▁invol	-2997
adu	-2998
▁pay	-2999
▁rights	-3000
▁suff	-3001
▁Gen	-3002
luran	-3003
▁Sol	-3004
▁believ	-3005
▁Ol	-3006
▁hilagang	-3007
▁key	-3008
▁Bay	-3009
▁Team	-3010
ospital	-3011
▁Ingles	-3012
ilangang	-3013
aries	-3014
▁hor	-3015
ja	-3016
▁information	-3017
▁track	-3018
ological	-3019
ani	-3020
action	-3021
▁female	-3022
iles	-3023
utes	-3024
▁Hel	-3025
vious	-3026
▁composer	-3027
gent	-3028
▁journal	-3029
▁case	-3030
▁mundo	-3031
onia	-3032
iro	-3033
▁wikang	-3034
uced	-3035
▁iss	-3036
▁Greek	-3037
▁liter	-3038
aker	-3039
NA	-3040
▁Hal	-3041
ikha	-3042
▁pur	-3043
▁Secret	-3044
▁Kal	-3045
yar	-3046
▁Ec	-3047
ising	-3048
▁playing	-3049
▁dark	-3050
board	-3051
isang	-3052
▁helped	-3053
uang	-3054
▁Di	-3055
▁mix	-3056
▁Love	-3057
▁ring	-3058
band	-3059
▁bawat	-3060
▁Isang	-3061
▁civil	-3062
ón	-3063
isc	-3064
▁bago	-3065
▁songs	-3066
▁)	-3067
▁arm	-3068
▁computer	-3069
ively	-3070
▁Western	-3071
▁pum	-3072
airs	-3073
▁Dig	-3074
esus	-3075
aho	-3076
▁ice	-3077
▁idea	-3078
amam	-3079
▁Fer	-3080
▁Egypt	-3081
▁paint	-3082
amin	-3083
rel	-3084
▁Queen	-3085
icipal	-3086
▁creat	-3087
▁asked	-3088
▁proper	-3089
▁deg	-3090
ending	-3091
eful	-3092
hemat	-3093
▁prim	-3094
anga	-3095
▁squ	-3096
▁Women	-3097
abit	-3098
alay	-3099
▁treat	-3100
▁uses	-3101
▁village	-3102
fect	-3103
▁prob	-3104
▁lin	-3105
ungan	-3106
▁nagk	-3107
▁office	-3108
▁disease	-3109
mar	-3110
▁considered	-3111
▁mur	-3112
alag	-3113
me	-3114
igr	-3115
▁Tex	-3116
ps	-3117
▁position	-3118
▁cannot	-3119
▁includes	-3120
ades	-3121
▁total	-3122
▁ep	-3123
acher	-3124
▁pri	-3125
aaral	-3126
▁test	-3127
AR	-3128
▁comb	-3129
▁mostly	-3130
▁cause	-3131
▁Joseph	-3132
ators	-3133
bor	-3134
uble	-3135
▁meet	-3136
▁Mod	-3137
▁Lord	-3138
estival	-3139
▁FLO	-3140
▁Ur	-3141
▁blood	-3142
▁race	-3143
▁earth	-3144
▁Bul	-3145
▁army	-3146
▁timog	-3147
itive	-3148
▁Mel	-3149
▁claim	-3150
▁exist	-3151
ormal	-3152
▁Death	-3153
iana	-3154
▁Wind	-3155
▁interest	-3156
ota	-3157
acing	-3158
astern	-3159
▁working	-3160
▁Green	-3161
▁returned	-3162
▁har	-3163
▁mid	-3164
SS	-3165
ER	-3166
▁dri	-3167
▁cop	-3168
▁offic	-3169
▁pelikula	-3170
▁Bi	-3171
▁Congress	-3172
▁various	-3173
rown	-3174
▁study	-3175
▁network	-3176
▁bad	-3177
▁Luc	-3178
aign	-3179
urther	-3180
ente	-3181
▁karaniwang	-3182
▁kasalukuy	-3183
▁Commun	-3184
▁ast	-3185
▁stay	-3186
roll	-3187
▁Fo	-3188
▁media	-3189
antic	-3190
▁Jim	-3191
year	-3192
▁ended	-3193
ume	-3194
▁fig	-3195
ivid	-3196
▁Kap	-3197
lement	-3198
▁episode	-3199
▁Na	-3200
reg	-3201
▁either	-3202
▁Battle	-3203
▁forces	-3204
▁super	-3205
▁Museum	-3206
▁Carl	-3207
▁happ	-3208
▁road	-3209
▁Pe	-3210
▁mom	-3211
▁Kan	-3212
▁ek	-3213
selves	-3214
▁Spain	-3215
uf	-3216
▁cy	-3217
▁brought	-3218
▁recogn	-3219
▁artista	-3220
▁kuw	-3221
▁health	-3222
ands	-3223
▁Lee	-3224
▁debut	-3225
arawan	-3226
▁novel	-3227
oria	-3228
▁studied	-3229
▁yet	-3230
▁thing	-3231
▁Court	-3232
▁located	-3233
field	-3234
▁Sil	-3235
▁Angeles	-3236
forman	-3237
▁eight	-3238
▁coach	-3239
▁opened	-3240
ique	-3241
hing	-3242
▁fish	-3243
▁Virgin	-3244
▁turned	-3245
inner	-3246
istry	-3247
ekt	-3248
▁becomes	-3249
▁maging	-3250
ecially	-3251
▁Div	-3252
verage	-3253
ipl	-3254
unk	-3255
▁bul	-3256
eball	-3257
idence	-3258
▁Rock	-3259
isl	-3260
▁jud	-3261
din	-3262
▁Az	-3263
▁directed	-3264
▁Club	-3265
▁Atl	-3266
omp	-3267
ampion	-3268
aven	-3269
▁Es	-3270
▁police	-3271
▁move	-3272
▁Fin	-3273
▁cut	-3274
▁transl	-3275
▁parehong	-3276
ecutive	-3277
iger	-3278
▁instead	-3279
▁bird	-3280
▁Smith	-3281
▁phot	-3282
irit	-3283
▁vict	-3284
▁sist	-3285
▁studio	-3286
ien	-3287
▁Nap	-3288
▁Mos	-3289
▁Jr	-3290
▁project	-3291
head	-3292
▁friends	-3293
▁Mass	-3294
▁Of	-3295
▁themselves	-3296
amihan	-3297
▁pract	-3298
gen	-3299
po	-3300
▁press	-3301
▁Their	-3302
cean	-3303
▁Prans	-3304
ources	-3305
="	-3306
▁soft	-3307
lor	-3308
▁capt	-3309
ils	-3310
▁bab	-3311
ety	-3312
▁Leg	-3313
▁front	-3314
▁quick	-3315
ataas	-3316
▁dum	-3317
known	-3318
▁Muslim	-3319
▁Democratic	-3320
awang	-3321
atawan	-3322
▁Fam	-3323
iwala	-3324
▁Hung	-3325
asc	-3326
time	-3327
▁ste	-3328
▁complet	-3329
▁Kasaysayan	-3330
▁meaning	-3331
▁developed	-3332
wan	-3333
oved	-3334
▁Kn	-3335
▁Pre	-3336
ao	-3337
gg	-3338
▁Hul	-3339
▁hom	-3340
ketball	-3341
ores	-3342
▁ident	-3343
▁mo	-3344
▁Carol	-3345
▁Cam	-3346
▁Since	-3347
▁piec	-3348
atak	-3349
▁Texas	-3350
▁introd	-3351
ez	-3352
▁Bus	-3353
play	-3354
▁ran	-3355
▁Zeal	-3356
▁material	-3357
▁administr	-3358
irang	-3359
▁nar	-3360
▁Santa	-3361
▁Bur	-3362
▁bur	-3363
▁sug	-3364
▁months	-3365
elling	-3366
irect	-3367
▁Later	-3368
▁reached	-3369
▁Portug	-3370
▁science	-3371
▁signed	-3372
▁birth	-3373
▁department	-3374
▁Ak	-3375
TV	-3376
ugnay	-3377
ament	-3378
▁mind	-3379
▁radio	-3380
▁Frank	-3381
eks	-3382
upt	-3383
ware	-3384
▁Because	-3385
ranch	-3386
▁court	-3387
▁Zealand	-3388
▁Boy	-3389
ification	-3390
▁Prize	-3391
▁possible	-3392
ethod	-3393
▁west	-3394
▁break	-3395
▁pagbab	-3396
▁kag	-3397
...	-3398
▁Ayon	-3399
▁Prov	-3400
▁laban	-3401
ette	-3402
Ar	-3403
▁current	-3404
itte	-3405
▁Jud	-3406
▁feet	-3407
▁program	-3408
ipat	-3409
American	-3410
▁Ha	-3411
▁Georg	-3412
Ch	-3413
▁successful	-3414
▁tree	-3415
▁sumus	-3416
▁Martin	-3417
imbawa	-3418
▁Pop	-3419
▁relations	-3420
FF	-3421
leg	-3422
▁hit	-3423
irm	-3424
oma	-3425
▁kont	-3426
▁vot	-3427
▁however	-3428
▁Gay	-3429
▁continued	-3430
▁hot	-3431
▁Mexico	-3432
▁names	-3433
iverse	-3434
▁Set	-3435
ibrary	-3436
aryo	-3437
oles	-3438
face	-3439
▁Lungsod	-3440
abing	-3441
▁Sar	-3442
▁Mov	-3443
▁Kong	-3444
▁Ham	-3445
▁rail	-3446
▁space	-3447
reme	-3448
▁Imper	-3449
apa	-3450
viron	-3451
aly	-3452
api	-3453
▁eat	-3454
▁Over	-3455
▁Institute	-3456
▁quest	-3457
ishop	-3458
▁movement	-3459
▁pagd	-3460
reland	-3461
ultura	-3462
ternet	-3463
▁huling	-3464
ceed	-3465
▁cross	-3466
▁plant	-3467
west	-3468
▁nec	-3469
▁east	-3470
▁sak	-3471
▁Austria	-3472
▁Sub	-3473
▁esc	-3474
▁church	-3475
▁Den	-3476
▁meas	-3477
iral	-3478
▁ina	-3479
▁added	-3480
▁energy	-3481
▁surv	-3482
▁Mark	-3483
umang	-3484
▁gamit	-3485
▁Wrestling	-3486
▁events	-3487
ibigay	-3488
▁Kr	-3489
urrican	-3490
▁stars	-3491
▁Cons	-3492
iced	-3493
▁style	-3494
▁battle	-3495
▁behind	-3496
▁believe	-3497
▁Argent	-3498
ipe	-3499
▁Krist	-3500
▁destroy	-3501
▁especially	-3502
▁community	-3503
▁Jac	-3504
▁effect	-3505
▁plants	-3506
▁conv	-3507
▁force	-3508
ji	-3509
▁Olympic	-3510
▁province	-3511
▁Fred	-3512
▁cities	-3513
wal	-3514
BS	-3515
▁tun	-3516
▁niyang	-3517
olo	-3518
▁mem	-3519
ulay	-3520
▁fre	-3521
urity	-3522
▁wood	-3523
▁Ireland	-3524
▁Mas	-3525
▁longer	-3526
▁characters	-3527
▁Young	-3528
use	-3529
▁ayon	-3530
sych	-3531
▁plays	-3532
▁rap	-3533
uge	-3534
▁tungkol	-3535
▁whole	-3536
▁Before	-3537
eff	-3538
▁conduct	-3539
ols	-3540
awit	-3541
ahayag	-3542
azine	-3543
▁Ill	-3544
ends	-3545
xy	-3546
▁inj	-3547
▁higit	-3548
▁Anne	-3549
▁Max	-3550
▁Spr	-3551
apang	-3552
irahan	-3553
▁Two	-3554
▁Represent	-3555
ologist	-3556
▁decided	-3557
▁Belg	-3558
▁Serv	-3559
ubre	-3560
▁Tal	-3561
▁Tim	-3562
▁ple	-3563
▁Mayo	-3564
▁Hindi	-3565
.)	-3566
▁opisyal	-3567
VID	-3568
▁Mayn	-3569
andaigdig	-3570
▁Emperor	-3571
▁product	-3572
▁Anton	-3573
awing	-3574
▁Florida	-3575
▁Time	-3576
▁Pers	-3577
▁malaking	-3578
▁sun	-3579
▁Us	-3580
igit	-3581
▁nas	-3582
▁Pac	-3583
▁production	-3584
▁outside	-3585
▁Big	-3586
rd	-3587
▁Press	-3588
▁types	-3589
▁enc	-3590
▁Isa	-3591
▁Liber	-3592
wh	-3593
ahal	-3594
▁dam	-3595
enced	-3596
alls	-3597
▁hands	-3598
▁kak	-3599
▁Juan	-3600
▁seven	-3601
▁lok	-3602
▁attempt	-3603
▁deep	-3604
▁coast	-3605
▁development	-3606
pat	-3607
▁Song	-3608
uty	-3609
▁reason	-3610
eta	-3611
▁Dar	-3612
▁languages	-3613
OR	-3614
▁sen	-3615
▁tried	-3616
▁territ	-3617
iga	-3618
▁simb	-3619
iran	-3620
▁itself	-3621
▁wa	-3622
▁Naz	-3623
leep	-3624
▁allowed	-3625
ems	-3626
▁Bob	-3627
abeth	-3628
▁mad	-3629
uto	-3630
▁saf	-3631
▁gas	-3632
rong	-3633
▁passed	-3634
nang	-3635
▁Senate	-3636
▁According	-3637
▁Os	-3638
▁wid	-3639
▁Edward	-3640
fore	-3641
itect	-3642
▁changes	-3643
▁COVID	-3644
▁looked	-3645
rov	-3646
▁WW	-3647
▁Gall	-3648
▁amount	-3649
▁poor	-3650
▁reb	-3651
▁walk	-3652
ynast	-3653
▁believed	-3654
ablished	-3655
▁cel	-3656
▁ko	-3657
▁Enero	-3658
pag	-3659
▁gawa	-3660
▁moment	-3661
▁Brown	-3662
▁Scot	-3663
▁Wal	-3664
ulf	-3665
▁highest	-3666
▁tour	-3667
▁campaign	-3668
▁recorded	-3669
oby	-3670
▁tagapag	-3671
▁Street	-3672
];	-3673
▁pil	-3674
▁inside	-3675
▁step	-3676
▁players	-3677
In	-3678
▁kaya	-3679
ply	-3680
▁particular	-3681
▁ship	-3682
ios	-3683
▁Ver	-3684
icle	-3685
▁hang	-3686
▁Jackson	-3687
orning	-3688
▁struct	-3689
▁writing	-3690
▁medal	-3691
undred	-3692
ference	-3693
▁Now	-3694
▁Lo	-3695
ality	-3696
▁Disyembre	-3697
itted	-3698
▁sn	-3699
▁takes	-3700
ktubre	-3701
▁clos	-3702
▁nakak	-3703
▁storm	-3704
▁manager	-3705
▁Tw	-3706
ias	-3707
enth	-3708
▁Maynila	-3709
▁Ka	-3710
▁Bab	-3711
▁muling	-3712
do	-3713
itory	-3714
▁Sea	-3715
osto	-3716
etting	-3717
▁Ho	-3718
amant	-3719
incess	-3720
mas	-3721
ule	-3722
▁News	-3723
anggap	-3724
▁Football	-3725
▁rather	-3726
usan	-3727
▁Asia	-3728
▁Second	-3729
vironment	-3730
▁Sel	-3731
ibl	-3732
▁mathemat	-3733
den	-3734
▁Games	-3735
▁Bang	-3736
▁decl	-3737
ires	-3738
▁CE	-3739
iation	-3740
▁Win	-3741
▁Bor	-3742
án	-3743
ono	-3744
▁Out	-3745
esh	-3746
▁compan	-3747
ilis	-3748
▁Bern	-3749
▁Timog	-3750
▁Parliament	-3751
▁leave	-3752
▁grand	-3753
isip	-3754
▁Ann	-3755
▁Austrian	-3756
ises	-3757
▁Sand	-3758
▁today	-3759
▁Ram	-3760
▁Northern	-3761
▁gay	-3762
uks	-3763
▁nothing	-3764
▁education	-3765
▁coll	-3766
isk	-3767
klat	-3768
▁Hapon	-3769
▁travel	-3770
▁Group	-3771
ource	-3772
▁Career	-3773
▁Hil	-3774
▁While	-3775
▁regular	-3776
▁Pilipino	-3777
▁What	-3778
▁trib	-3779
▁previous	-3780
▁Tod	-3781
▁followed	-3782
▁hangganan	-3783
▁fif	-3784
▁ancient	-3785
▁screen	-3786
▁Ik	-3787
ES	-3788
▁Scottish	-3789
▁week	-3790
azz	-3791
▁Hulyo	-3792
▁research	-3793
uture	-3794
▁Cat	-3795
▁ge	-3796
enty	-3797
inger	-3798
▁shown	-3799
▁journalist	-3800
▁secret	-3801
alog	-3802
▁iyon	-3803
▁arrest	-3804
▁ye	-3805
▁Land	-3806
ready	-3807
▁Oktubre	-3808
imp	-3809
stein	-3810
▁metal	-3811
▁Society	-3812
awn	-3813
hood	-3814
▁Tin	-3815
ivate	-3816
▁Class	-3817
▁Marso	-3818
▁Secretary	-3819
ii	-3820
▁performed	-3821
▁answ	-3822
▁green	-3823
▁average	-3824
▁Hot	-3825
▁ngayon	-3826
▁happened	-3827
bre	-3828
atid	-3829
aging	-3830
▁heard	-3831
▁sch	-3832
▁ut	-3833
bit	-3834
ube	-3835
▁Far	-3836
ulot	-3837
riage	-3838
▁Old	-3839
▁stage	-3840
ittee	-3841
▁contract	-3842
▁hus	-3843
isyong	-3844
ansas	-3845
▁philosop	-3846
▁room	-3847
ictures	-3848
▁culture	-3849
▁(;	-3850
itiz	-3851
▁leaders	-3852
unp	-3853
▁true	-3854
▁wika	-3855
andang	-3856
abaw	-3857
▁der	-3858
urricane	-3859
▁Mun	-3860
▁vir	-3861
▁ren	-3862
▁board	-3863
▁TH	-3864
▁sumusunod	-3865
▁appoint	-3866
eign	-3867
iences	-3868
▁Under	-3869
▁Company	-3870
▁Department	-3871
▁element	-3872
▁Lu	-3873
itude	-3874
oses	-3875
▁difficult	-3876
asy	-3877
▁invest	-3878
iwa	-3879
▁Che	-3880
▁chemical	-3881
▁Virginia	-3882
▁established	-3883
inished	-3884
▁batas	-3885
▁slow	-3886
▁Hunyo	-3887
▁lower	-3888
▁suggest	-3889
▁Order	-3890
▁Columb	-3891
▁Tour	-3892
hold	-3893
olar	-3894
AP	-3895
iment	-3896
▁center	-3897
cel	-3898
ungo	-3899
▁replaced	-3900
▁Records	-3901
▁murder	-3902
▁Polish	-3903
▁soldiers	-3904
▁Ah	-3905
▁pant	-3906
▁panahong	-3907
▁except	-3908
▁performan	-3909
▁Rod	-3910
▁laws	-3911
▁populasyon	-3912
ustr	-3913
▁Sat	-3914
abaho	-3915
▁Work	-3916
▁subject	-3917
▁Viet	-3918
▁Person	-3919
▁understand	-3920
angalan	-3921
▁Jean	-3922
light	-3923
▁Dahil	-3924
▁Nobyembre	-3925
▁Wood	-3926
embly	-3927
istics	-3928
▁whom	-3929
mun	-3930
▁kasaysayan	-3931
ensive	-3932
▁foc	-3933
▁Sport	-3934
▁students	-3935
▁numbers	-3936
▁candid	-3937
uments	-3938
ken	-3939
▁Stan	-3940
▁Abril	-3941
inct	-3942
▁Duke	-3943
▁pers	-3944
umer	-3945
▁Hale	-3946
ining	-3947
▁mach	-3948
etherlands	-3949
amay	-3950
▁estado	-3951
▁beaut	-3952
asok	-3953
▁Gal	-3954
▁towards	-3955
▁blue	-3956
▁care	-3957
▁Vi	-3958
ibig	-3959
▁Simb	-3960
▁Bal	-3961
ipunan	-3962
▁bagay	-3963
▁Step	-3964
ova	-3965
▁Catal	-3966
▁assist	-3967
▁Agosto	-3968
▁Gh	-3969
▁Tem	-3970
▁sem	-3971
onn	-3972
▁quite	-3973
back	-3974
▁apat	-3975
ader	-3976
oral	-3977
▁dog	-3978
▁discovered	-3979
▁pamam	-3980
▁critic	-3981
▁matapos	-3982
▁individ	-3983
▁pakik	-3984
▁danger	-3985
▁goes	-3986
▁kept	-3987
bour	-3988
▁municipal	-3989
MA	-3990
ulit	-3991
▁pamahalaan	-3992
▁release	-3993
upo	-3994
▁salitang	-3995
▁Social	-3996
▁wat	-3997
▁whose	-3998
▁Indones	-3999
mit	-4000
▁method	-4001
▁pot	-4002
agn	-4003
▁Pas	-4004
▁offer	-4005
▁rule	-4006
▁Elect	-4007
▁FI	-4008
ebrero	-4009
▁Spec	-4010
ax	-4011
▁pen	-4012
▁entire	-4013
▁fast	-4014
hin	-4015
ograph	-4016
atili	-4017
ynasty	-4018
▁Disney	-4019
▁already	-4020
▁nakat	-4021
▁Setyembre	-4022
▁southern	-4023
aks	-4024
elled	-4025
ridge	-4026
▁pand	-4027
ears	-4028
▁Scient	-4029
▁nina	-4030
ekto	-4031
aralan	-4032
▁Nic	-4033
uts	-4034
cript	-4035
▁Kenn	-4036
▁central	-4037
▁card	-4038
ray	-4039
▁Diyos	-4040
▁mainly	-4041
▁Doc	-4042
▁malapit	-4043
▁avail	-4044
▁theory	-4045
jan	-4046
iyo	-4047
pose	-4048
amatay	-4049
▁features	-4050
vey	-4051
▁nagd	-4052
▁pangkat	-4053
▁respons	-4054
▁cat	-4055
▁nagl	-4056
utukoy	-4057
▁AD	-4058
▁systems	-4059
▁Ke	-4060
▁husband	-4061
▁spread	-4062
▁seemed	-4063
▁arg	-4064
ential	-4065
akala	-4066
▁aud	-4067
▁Nang	-4068
▁thous	-4069
▁box	-4070
▁san	-4071
▁teams	-4072
▁express	-4073
uv	-4074
▁Netherlands	-4075
het	-4076
embro	-4077
aban	-4078
▁Prod	-4079
▁electric	-4080
▁Sk	-4081
▁hous	-4082
▁rank	-4083
▁hospital	-4084
▁Vietnam	-4085
▁goal	-4086
▁Fe	-4087
▁Summer	-4088
amed	-4089
▁base	-4090
▁Romano	-4091
▁pred	-4092
▁knew	-4093
▁Barb	-4094
aching	-4095
▁symbol	-4096
▁Government	-4097
▁parents	-4098
oo	-4099
hens	-4100
▁miss	-4101
zan	-4102
ulation	-4103
▁Britain	-4104
BA	-4105
UN	-4106
▁Fre	-4107
▁Irish	-4108
ager	-4109
▁inst	-4110
▁Ng	-4111
▁Network	-4112
▁Alexander	-4113
▁insp	-4114
▁Golden	-4115
▁beginning	-4116
▁hockey	-4117
▁Lang	-4118
▁described	-4119
uer	-4120
ploy	-4121
arts	-4122
▁Good	-4123
onse	-4124
eo	-4125
▁Ca	-4126
alig	-4127
▁shot	-4128
▁hundred	-4129
rito	-4130
▁hours	-4131
ability	-4132
▁Direct	-4133
▁Leon	-4134
▁enem	-4135
▁Enter	-4136
▁Pebrero	-4137
▁basketball	-4138
▁adult	-4139
▁ideas	-4140
▁Cro	-4141
inig	-4142
▁services	-4143
ardo	-4144
iant	-4145
▁Civil	-4146
▁nuc	-4147
▁Penn	-4148
▁cost	-4149
▁naglalaman	-4150
aham	-4151
orial	-4152
▁sister	-4153
▁northern	-4154
▁karamihan	-4155
▁painter	-4156
▁Show	-4157
eds	-4158
ebisyon	-4159
▁bring	-4160
▁kilomet	-4161
▁ball	-4162
▁grew	-4163
▁mol	-4164
▁Lake	-4165
▁diyos	-4166
iniwala	-4167
anded	-4168
▁Daniel	-4169
▁Tok	-4170
▁eks	-4171
▁self	-4172
aganap	-4173
▁fourth	-4174
▁cases	-4175
▁thr	-4176
alat	-4177
▁Are	-4178
▁Kom	-4179
asion	-4180
▁Eliz	-4181
▁value	-4182
uturing	-4183
▁dro	-4184
▁Series	-4185
LS	-4186
▁ways	-4187
umn	-4188
oper	-4189
▁religious	-4190
▁Olympics	-4191
▁abs	-4192
▁nin	-4193
▁clear	-4194
▁length	-4195
ingnan	-4196
▁accept	-4197
▁attr	-4198
▁points	-4199
▁male	-4200
ukt	-4201
ario	-4202
erve	-4203
▁Oh	-4204
▁McC	-4205
▁wild	-4206
iller	-4207
▁distr	-4208
▁cur	-4209
unter	-4210
▁cle	-4211
▁drug	-4212
par	-4213
sen	-4214
▁Pamb	-4215
▁quickly	-4216
mark	-4217
▁related	-4218
gress	-4219
atre	-4220
igo	-4221
▁legal	-4222
▁Gab	-4223
▁Mem	-4224
itnang	-4225
hib	-4226
▁Pun	-4227
ograpiya	-4228
▁ling	-4229
unpaman	-4230
▁forms	-4231
▁Inc	-4232
icans	-4233
▁degree	-4234
▁egg	-4235
ahi	-4236
▁Tsina	-4237
osa	-4238
idae	-4239
▁Prot	-4240
▁farm	-4241
▁Silla	-4242
▁Francisco	-4243
abot	-4244
▁Def	-4245
▁Tay	-4246
▁traditional	-4247
▁Berlin	-4248
▁dek	-4249
▁fa	-4250
▁Little	-4251
▁review	-4252
arden	-4253
craft	-4254
▁sports	-4255
▁Alb	-4256
icy	-4257
▁course	-4258
ensus	-4259
▁kanya	-4260
▁kasalukuyang	-4261
kas	-4262
▁Men	-4263
▁NHL	-4264
isher	-4265
▁door	-4266
▁UN	-4267
▁EOS	-4268
▁schools	-4269
▁constr	-4270
▁Haleakala	-4271
▁reported	-4272
▁bank	-4273
iit	-4274
▁den	-4275
▁Hill	-4276
▁wrest	-4277
▁Back	-4278
▁Kim	-4279
urang	-4280
oli	-4281
▁raised	-4282
▁trees	-4283
▁Philippines	-4284
▁Wales	-4285
▁Dev	-4286
lay	-4287
▁Scotland	-4288
▁finished	-4289
▁Rail	-4290
An	-4291
iful	-4292
omer	-4293
▁Nobel	-4294
▁minister	-4295
▁Notes	-4296
▁rain	-4297
▁lalaki	-4298
▁Van	-4299
▁size	-4300
ashi	-4301
istic	-4302
▁flo	-4303
▁Top	-4304
onder	-4305
▁killing	-4306
▁Revolution	-4307
▁smaller	-4308
heast	-4309
▁fac	-4310
▁celebr	-4311
▁lupa	-4312
▁Hind	-4313
▁speed	-4314
▁katulad	-4315
▁Mak	-4316
▁Gin	-4317
▁ginawa	-4318
▁account	-4319
song	-4320
onic	-4321
angay	-4322
▁available	-4323
amber	-4324
ahok	-4325
▁Gi	-4326
▁tubig	-4327
▁taking	-4328
▁Lin	-4329
▁bes	-4330
▁university	-4331
▁Bat	-4332
▁gain	-4333
▁independent	-4334
▁Night	-4335
umpay	-4336
▁stopped	-4337
▁itinatag	-4338
oid	-4339
well	-4340
br	-4341
▁Nat	-4342
▁drum	-4343
▁protect	-4344
▁Ott	-4345
anned	-4346
aded	-4347
▁Chief	-4348
AC	-4349
lav	-4350
▁train	-4351
▁Cz	-4352
ello	-4353
▁causes	-4354
▁Meite	-4355
▁Mir	-4356
▁pati	-4357
Th	-4358
▁sinaunang	-4359
cul	-4360
▁vocals	-4361
▁dal	-4362
rich	-4363
ulugan	-4364
maang	-4365
▁sand	-4366
▁Matt	-4367
ihinal	-4368
▁coup	-4369
▁nature	-4370
▁bomb	-4371
▁middle	-4372
▁architect	-4373
olk	-4374
▁Republican	-4375
▁stories	-4376
▁why	-4377
met	-4378
itzer	-4379
▁;	-4380
▁Rus	-4381
▁Roma	-4382
ilan	-4383
▁ca	-4384
▁Middle	-4385
▁sure	-4386
▁mayroong	-4387
▁Af	-4388
ares	-4389
▁bak	-4390
anced	-4391
▁ago	-4392
▁pamilya	-4393
▁Pagkatapos	-4394
arter	-4395
▁market	-4396
);	-4397
ronic	-4398
▁Ipin	-4399
▁unto	-4400
rad	-4401
▁simbahan	-4402
icine	-4403
▁mataas	-4404
with	-4405
▁paggamit	-4406
▁Found	-4407
pe	-4408
▁ann	-4409
▁Wild	-4410
aawit	-4411
▁according	-4412
ses	-4413
▁Jewish	-4414
▁teacher	-4415
iti	-4416
▁Joe	-4417
▁create	-4418
ugg	-4419
▁originally	-4420
▁currently	-4421
ancy	-4422
▁bit	-4423
You	-4424
It	-4425
illed	-4426
▁defeated	-4427
inson	-4428
▁binubuo	-4429
thur	-4430
ikita	-4431
rick	-4432
▁Pope	-4433
▁Europa	-4434
▁action	-4435
▁further	-4436
▁Ko	-4437
▁date	-4438
angyar	-4439
▁fell	-4440
ishing	-4441
▁Mur	-4442
yone	-4443
▁cover	-4444
▁Nations	-4445
▁Camb	-4446
▁log	-4447
▁Jesus	-4448
▁sarili	-4449
▁occup	-4450
▁emb	-4451
▁Anim	-4452
▁Poland	-4453
▁Ven	-4454
▁felt	-4455
▁Sab	-4456
▁tax	-4457
▁ban	-4458
opt	-4459
▁Way	-4460
▁Lady	-4461
Ang	-4462
ram	-4463
▁Mrs	-4464
ask	-4465
aged	-4466
▁gradu	-4467
▁kapatid	-4468
||	-4469
lan	-4470
gawa	-4471
▁Road	-4472
▁shift	-4473
edia	-4474
▁gaya	-4475
▁Science	-4476
lang	-4477
▁susp	-4478
ensiya	-4479
▁Eastern	-4480
▁gaw	-4481
ordin	-4482
▁surface	-4483
put	-4484
▁newspap	-4485
▁activist	-4486
▁Johnson	-4487
obal	-4488
▁Town	-4489
▁sequ	-4490
osition	-4491
▁Rog	-4492
▁adm	-4493
▁Rome	-4494
▁Tre	-4495
▁fly	-4496
▁plat	-4497
▁range	-4498
ando	-4499
▁cer	-4500
▁Girl	-4501
illy	-4502
▁lawyer	-4503
▁Kah	-4504
▁Budd	-4505
▁Radio	-4506
▁Fort	-4507
▁seasons	-4508
▁programm	-4509
▁Elizabeth	-4510
unting	-4511
▁Charl	-4512
▁Mario	-4513
stra	-4514
een	-4515
▁rules	-4516
iyembro	-4517
▁imm	-4518
▁scr	-4519
▁baseball	-4520
▁Vill	-4521
▁Southern	-4522
▁Family	-4523
▁Meitei	-4524
▁Public	-4525
dr	-4526
▁Form	-4527
▁access	-4528
unta	-4529
▁Amerikanong	-4530
kin	-4531
icted	-4532
▁kala	-4533
▁nob	-4534
▁Andrew	-4535
▁heavy	-4536
▁astron	-4537
▁orihinal	-4538
▁belong	-4539
▁colon	-4540
▁Festival	-4541
gn	-4542
aped	-4543
▁leading	-4544
onstr	-4545
▁carry	-4546
▁fear	-4547
▁Broad	-4548
▁mountain	-4549
icks	-4550
▁Lor	-4551
▁foot	-4552
▁van	-4553
▁vote	-4554
▁Techn	-4555
▁Swedish	-4556
▁Representatives	-4557
▁Oper	-4558
▁park	-4559
▁higher	-4560
▁Another	-4561
rupt	-4562
▁page	-4563
▁wor	-4564
▁Conf	-4565
▁Long	-4566
▁prof	-4567
abin	-4568
ennis	-4569
▁Int	-4570
acter	-4571
asing	-4572
ilyong	-4573
▁exc	-4574
▁Bin	-4575
▁Ban	-4576
▁Kin	-4577
iwanag	-4578
▁matter	-4579
uwal	-4580
▁Pacific	-4581
▁ama	-4582
ledge	-4583
itting	-4584
ione	-4585
▁vo	-4586
iwalay	-4587
▁Armen	-4588
▁pis	-4589
▁Bilang	-4590
▁larger	-4591
ify	-4592
oro	-4593
▁miles	-4594
▁Jon	-4595
▁mahal	-4596
▁nagmula	-4597
▁failure	-4598
▁dapat	-4599
▁officer	-4600
▁Ell	-4601
ims	-4602
▁Bh	-4603
umi	-4604
▁von	-4605
hester	-4606
▁invent	-4607
▁Ger	-4608
▁Nar	-4609
▁hyd	-4610
▁bass	-4611
▁Jeff	-4612
▁retired	-4613
▁teritory	-4614
▁halos	-4615
▁neigh	-4616
▁letter	-4617
▁Iv	-4618
▁kapag	-4619
▁buildings	-4620
▁gets	-4621
fort	-4622
▁running	-4623
unin	-4624
▁saying	-4625
▁multiple	-4626
▁CD	-4627
▁Bre	-4628
▁Arts	-4629
▁pick	-4630
▁kapangyar	-4631
araan	-4632
▁although	-4633
▁relationship	-4634
enna	-4635
▁morning	-4636
ihin	-4637
▁fle	-4638
ening	-4639
▁lokal	-4640
ilities	-4641
aria	-4642
war	-4643
▁fair	-4644
▁Korean	-4645
▁table	-4646
▁psych	-4647
law	-4648
present	-4649
▁awarded	-4650
angal	-4651
▁Child	-4652
gor	-4653
IS	-4654
▁Carolina	-4655
uries	-4656
▁samp	-4657
▁surround	-4658
▁presidential	-4659
▁buwan	-4660
▁Division	-4661
▁Lar	-4662
▁designed	-4663
ming	-4664
▁Trump	-4665
ication	-4666
▁needed	-4667
▁Sanggunian	-4668
iled	-4669
▁Hud	-4670
▁kump	-4671
▁broadcast	-4672
uran	-4673
▁ding	-4674
▁pagiging	-4675
▁particip	-4676
▁su	-4677
▁Histor	-4678
▁Internet	-4679
ilo	-4680
▁kons	-4681
▁Prem	-4682
▁Czech	-4683
▁Harry	-4684
enta	-4685
▁figure	-4686
▁mags	-4687
▁Raj	-4688
▁fav	-4689
▁shoot	-4690
add	-4691
▁Ron	-4692
▁und	-4693
pan	-4694
heim	-4695
▁Hor	-4696
▁Islands	-4697
▁learn	-4698
amo	-4699
▁thus	-4700
iks	-4701
iot	-4702
▁problem	-4703
▁hair	-4704
▁Jones	-4705
▁becoming	-4706
▁try	-4707
house	-4708
▁launc	-4709
▁Jun	-4710
▁hari	-4711
jo	-4712
ukl	-4713
amba	-4714
▁nah	-4715
endo	-4716
▁Kansas	-4717
▁Ba	-4718
unlad	-4719
▁More	-4720
ahati	-4721
▁tropical	-4722
▁championship	-4723
yay	-4724
ilit	-4725
▁partik	-4726
▁Assembly	-4727
▁Princess	-4728
▁Times	-4729
▁Khan	-4730
omo	-4731
▁Fame	-4732
▁pas	-4733
▁Wall	-4734
alabas	-4735
▁Although	-4736
abor	-4737
iyeg	-4738
▁Cop	-4739
▁private	-4740
▁chief	-4741
udden	-4742
▁miyembro	-4743
▁western	-4744
▁powerful	-4745
▁musical	-4746
ammad	-4747
akt	-4748
▁Kast	-4749
lurang	-4750
▁showed	-4751
adium	-4752
▁Ty	-4753
esis	-4754
▁Spring	-4755
▁Rh	-4756
eman	-4757
▁cold	-4758
▁Organ	-4759
▁society	-4760
kom	-4761
adala	-4762
▁accident	-4763
▁Windows	-4764
▁oras	-4765
++++	-4766
▁Bol	-4767
▁cho	-4768
▁maliit	-4769
▁malawak	-4770
ultan	-4771
▁future	-4772
utan	-4773
▁animal	-4774
▁introduced	-4775
▁System	-4776
▁job	-4777
▁humans	-4778
▁Hy	-4779
pa	-4780
mond	-4781
▁respect	-4782
▁princ	-4783
vention	-4784
▁oldest	-4785
▁promot	-4786
akh	-4787
ersey	-4788
▁forced	-4789
ashion	-4790
▁environment	-4791
ansa	-4792
along	-4793
▁placed	-4794
▁minor	-4795
▁divided	-4796
atr	-4797
usion	-4798
▁Jane	-4799
▁paraan	-4800
BN	-4801
alawa	-4802
▁stood	-4803
agong	-4804
wide	-4805
eto	-4806
▁thou	-4807
▁Each	-4808
▁Cult	-4809
medi	-4810
Al	-4811
erg	-4812
▁county	-4813
▁Committee	-4814
▁pagsas	-4815
▁active	-4816
lier	-4817
▁meant	-4818
▁Cas	-4819
▁Profess	-4820
▁chair	-4821
hess	-4822
▁ibin	-4823
anging	-4824
▁Light	-4825
xim	-4826
ilies	-4827
▁appointed	-4828
▁Squ	-4829
ugnayan	-4830
▁Brazilian	-4831
▁businessman	-4832
▁IS	-4833
also	-4834
ipas	-4835
▁BBC	-4836
▁Rey	-4837
▁print	-4838
▁Catalina	-4839
alahat	-4840
▁Cub	-4841
▁Ray	-4842
ava	-4843
▁Constitution	-4844
▁observ	-4845
▁bay	-4846
▁citiz	-4847
US	-4848
▁Alf	-4849
▁older	-4850
▁minutes	-4851
▁Ken	-4852
▁transport	-4853
▁dom	-4854
▁bahay	-4855
▁master	-4856
▁Bet	-4857
▁alone	-4858
▁Tarzan	-4859
ston	-4860
uma	-4861
▁pul	-4862
▁Prim	-4863
▁whether	-4864
▁mis	-4865
shire	-4866
▁Sweden	-4867
▁magazine	-4868
over	-4869
▁herself	-4870
ting	-4871
▁gives	-4872
iang	-4873
icture	-4874
▁Lalawigan	-4875
▁Hockey	-4876
▁pinuno	-4877
▁Disc	-4878
▁Water	-4879
▁Williams	-4880
▁dekada	-4881
iyak	-4882
▁Commission	-4883
▁climate	-4884
▁wide	-4885
▁getting	-4886
igned	-4887
▁champion	-4888
iplom	-4889
▁loss	-4890
▁trade	-4891
▁unc	-4892
ahon	-4893
▁below	-4894
enyo	-4895
aches	-4896
weet	-4897
nes	-4898
▁pagm	-4899
▁Scientists	-4900
ellig	-4901
▁brain	-4902
▁destroyed	-4903
▁Ul	-4904
▁stre	-4905
reedom	-4906
oly	-4907
▁supported	-4908
▁Wik	-4909
merc	-4910
inois	-4911
ugo	-4912
▁bott	-4913
▁grap	-4914
▁Force	-4915
▁border	-4916
▁medical	-4917
ece	-4918
▁sleep	-4919
▁Blue	-4920
▁‘	-4921
▁tar	-4922
▁employ	-4923
▁skin	-4924
▁question	-4925
▁WWE	-4926
▁hay	-4927
▁Entertain	-4928
▁bansang	-4929
▁write	-4930
▁Cross	-4931
▁leaves	-4932
▁Today	-4933
▁entered	-4934
ni	-4935
ads	-4936
▁pus	-4937
▁someone	-4938
▁Major	-4939
▁Bank	-4940
ulungan	-4941
▁Georgia	-4942
▁cry	-4943
▁roles	-4944
▁Airport	-4945
▁Ukraine	-4946
▁Personal	-4947
osis	-4948
▁cells	-4949
▁drama	-4950
▁visit	-4951
▁Kristiy	-4952
▁ath	-4953
▁complex	-4954
▁Four	-4955
▁Gayunpaman	-4956
can	-4957
▁Bund	-4958
▁throughout	-4959
▁Les	-4960
▁Wars	-4961
▁spl	-4962
ping	-4963
▁Three	-4964
▁unibersidad	-4965
ternal	-4966
▁college	-4967
change	-4968
▁Education	-4969
▁lines	-4970
▁Griyeg	-4971
ikat	-4972
▁Line	-4973
▁Polit	-4974
▁Add	-4975
ylv	-4976
▁simula	-4977
▁anything	-4978
▁channel	-4979
▁federal	-4980
orship	-4981
▁normal	-4982
ederation	-4983
▁occur	-4984
▁ver	-4985
▁katawan	-4986
▁engineer	-4987
▁looking	-4988
▁About	-4989
ables	-4990
isions	-4991
▁sens	-4992
▁birds	-4993
▁toward	-4994
▁associ	-4995
▁End	-4996
bury	-4997
▁wear	-4998
▁manun	-4999
▁Econom	-5000
teen	-5001
▁oil	-5002
▁coming	-5003
▁episodes	-5004
elly	-5005
▁spirit	-5006
▁nominated	-5007
ension	-5008
▁Illinois	-5009
ropol	-5010
lications	-5011
▁Digmaang	-5012
▁religion	-5013
bis	-5014
eda	-5015
▁Human	-5016
▁Orig	-5017
▁dance	-5018
▁Also	-5019
▁goals	-5020
▁Bell	-5021
▁Game	-5022
▁anyo	-5023
▁Kaur	-5024
▁ekonom	-5025
ving	-5026
▁Itin	-5027
uses	-5028
▁Nick	-5029
▁arms	-5030
▁companies	-5031
ikh	-5032
▁Tan	-5033
▁Service	-5034
▁probably	-5035
▁CSS	-5036
alled	-5037
▁(,	-5038
▁deal	-5039
▁opera	-5040
▁really	-5041
▁Arthur	-5042
▁Victoria	-5043
▁involved	-5044
▁Jose	-5045
▁Palest	-5046
▁executive	-5047
▁Cy	-5048
oston	-5049
echan	-5050
aryong	-5051
value	-5052
▁nagh	-5053
▁marriage	-5054
▁Library	-5055
▁owned	-5056
▁Die	-5057
▁cust	-5058
alaman	-5059
emon	-5060
anggit	-5061
▁pinakamalaking	-5062
▁liber	-5063
ector	-5064
▁code	-5065
▁pangalang	-5066
▁Entertainment	-5067
▁Ib	-5068
key	-5069
etic	-5070
▁closed	-5071
▁Mot	-5072
▁didn	-5073
▁spent	-5074
▁scientists	-5075
▁block	-5076
▁Home	-5077
▁Chris	-5078
▁watch	-5079
oud	-5080
▁Bon	-5081
▁nor	-5082
▁mess	-5083
icated	-5084
elle	-5085
▁weak	-5086
▁distance	-5087
▁Atlantic	-5088
AT	-5089
elo	-5090
▁fought	-5091
ker	-5092
itna	-5093
▁likely	-5094
usay	-5095
▁die	-5096
▁Corn	-5097
arap	-5098
athala	-5099
▁simple	-5100
▁ben	-5101
poration	-5102
org	-5103
ographer	-5104
utub	-5105
▁Pandaigdig	-5106
▁temperature	-5107
oken	-5108
▁results	-5109
▁grupo	-5110
edd	-5111
▁remained	-5112
▁Ox	-5113
ificant	-5114
sk	-5115
sort	-5116
▁educ	-5117
▁situ	-5118
▁shr	-5119
▁sinabi	-5120
▁Member	-5121
▁cong	-5122
▁tells	-5123
▁Donald	-5124
rat	-5125
▁serye	-5126
osh	-5127
▁tri	-5128
▁bers	-5129
▁charge	-5130
songwriter	-5131
awak	-5132
▁Mula	-5133
▁Cle	-5134
▁ip	-5135
▁summer	-5136
ails	-5137
▁Hong	-5138
▁interview	-5139
▁op	-5140
▁winner	-5141
▁Bah	-5142
flict	-5143
▁siy	-5144
ayaan	-5145
▁Ra	-5146
▁ginamit	-5147
▁kamp	-5148
ylvania	-5149
▁Let	-5150
▁inh	-5151
▁performance	-5152
▁UE	-5153
▁Valley	-5154
▁pambansang	-5155
▁Ash	-5156
▁IV	-5157
▁Rem	-5158
achus	-5159
ibang	-5160
▁naka	-5161
▁determ	-5162
▁organis	-5163
alin	-5164
ukan	-5165
▁katang	-5166
▁Ocean	-5167
▁consider	-5168
▁Columbia	-5169
▁ist	-5170
▁Kaurian	-5171
ners	-5172
▁eye	-5173
▁hop	-5174
odies	-5175
▁officially	-5176
▁Kir	-5177
▁nearly	-5178
▁commonly	-5179
▁altern	-5180
▁online	-5181
▁Hilagang	-5182
▁governor	-5183
lar	-5184
▁Fox	-5185
▁terms	-5186
▁Bow	-5187
▁launched	-5188
▁cart	-5189
▁albums	-5190
▁starting	-5191
▁Bad	-5192
▁antas	-5193
▁regard	-5194
usal	-5195
▁PLS	-5196
▁paper	-5197
▁comedy	-5198
uta	-5199
▁Justice	-5200
etts	-5201
▁Reb	-5202
kh	-5203
▁Katol	-5204
itation	-5205
▁yellow	-5206
▁software	-5207
urd	-5208
▁Id	-5209
▁pagkaka	-5210
▁Castle	-5211
▁Americans	-5212
▁+	-5213
▁professor	-5214
▁Det	-5215
▁nakab	-5216
▁CH	-5217
▁spe	-5218
▁syn	-5219
▁Muh	-5220
▁mamam	-5221
ikasyon	-5222
▁Medal	-5223
▁Universe	-5224
▁artik	-5225
▁doing	-5226
ules	-5227
▁Pen	-5228
emang	-5229
▁Like	-5230
▁threat	-5231
▁Singap	-5232
▁influence	-5233
pite	-5234
▁Pier	-5235
▁aklat	-5236
▁competition	-5237
▁lib	-5238
▁gus	-5239
▁manlal	-5240
▁teritoryo	-5241
▁eventually	-5242
awid	-5243
▁join	-5244
▁source	-5245
▁royal	-5246
▁foreign	-5247
hew	-5248
onts	-5249
▁Pap	-5250
▁puw	-5251
▁contains	-5252
▁gone	-5253
▁remember	-5254
▁Doug	-5255
acc	-5256
▁Independ	-5257
▁behav	-5258
▁x	-5259
weight	-5260
uls	-5261
▁kahit	-5262
▁Ast	-5263
▁laro	-5264
▁Tingnan	-5265
▁organization	-5266
▁fort	-5267
bing	-5268
vo	-5269
▁Philippine	-5270
▁alt	-5271
▁comune	-5272
▁league	-5273
imin	-5274
unch	-5275
▁peace	-5276
▁fighting	-5277
▁bat	-5278
▁Pres	-5279
▁Television	-5280
▁Chap	-5281
▁Boston	-5282
▁Color	-5283
▁frequ	-5284
▁adapt	-5285
ikan	-5286
▁Hay	-5287
▁troops	-5288
▁rob	-5289
▁danc	-5290
▁attacks	-5291
ras	-5292
▁Pangulo	-5293
ulin	-5294
pro	-5295
maan	-5296
osen	-5297
▁Sometimes	-5298
osing	-5299
▁sudden	-5300
▁passeng	-5301
sik	-5302
ocks	-5303
iance	-5304
eva	-5305
▁Tam	-5306
▁reach	-5307
▁Wilson	-5308
Ing	-5309
emat	-5310
▁addition	-5311
▁Att	-5312
itage	-5313
eless	-5314
ihang	-5315
▁Gil	-5316
▁diss	-5317
andy	-5318
haps	-5319
▁sexual	-5320
▁Research	-5321
▁Phys	-5322
▁Mid	-5323
uj	-5324
▁Fire	-5325
▁relih	-5326
▁Foundation	-5327
uten	-5328
obile	-5329
▁founder	-5330
▁seat	-5331
▁nitong	-5332
▁Ped	-5333
▁tall	-5334
mercial	-5335
▁Lind	-5336
▁Manip	-5337
atanggap	-5338
▁diplom	-5339
▁Federal	-5340
▁thy	-5341
▁Mike	-5342
▁centre	-5343
abet	-5344
▁covered	-5345
eral	-5346
▁komun	-5347
▁necess	-5348
▁towns	-5349
▁document	-5350
▁eggs	-5351
▁pinagm	-5352
▁Well	-5353
▁generally	-5354
▁forest	-5355
").	-5356
▁Ot	-5357
▁nangang	-5358
bong	-5359
▁Dor	-5360
▁kanila	-5361
▁Abd	-5362
▁Asya	-5363
▁Story	-5364
achusetts	-5365
ktor	-5366
▁FIFA	-5367
▁territory	-5368
▁Province	-5369
▁vehic	-5370
▁Albert	-5371
▁significant	-5372
amatayan	-5373
▁gun	-5374
▁Health	-5375
FL	-5376
▁reve	-5377
▁mouth	-5378
▁standard	-5379
▁Conn	-5380
▁score	-5381
iden	-5382
▁eth	-5383
▁Mexican	-5384
▁agr	-5385
▁separate	-5386
kins	-5387
▁UEFA	-5388
▁Amerika	-5389
pluw	-5390
ić	-5391
▁hour	-5392
▁Space	-5393
▁USA	-5394
▁Ky	-5395
sequ	-5396
▁carried	-5397
▁elements	-5398
othing	-5399
▁aircraft	-5400
▁Massachusetts	-5401
▁Islamic	-5402
▁Wat	-5403
anna	-5404
▁Both	-5405
ression	-5406
▁halimbawa	-5407
▁collection	-5408
mann	-5409
▁Ay	-5410
▁sit	-5411
osaur	-5412
▁Singh	-5413
ayos	-5414
▁Ira	-5415
▁Ren	-5416
▁Penns	-5417
▁mic	-5418
▁anti	-5419
▁nine	-5420
urban	-5421
▁doctor	-5422
▁appearance	-5423
agay	-5424
ders	-5425
amot	-5426
oven	-5427
adalas	-5428
istang	-5429
▁genus	-5430
▁Post	-5431
aily	-5432
resh	-5433
ukat	-5434
va	-5435
▁weeks	-5436
▁animated	-5437
▁kapangyarihan	-5438
istro	-5439
chiev	-5440
ako	-5441
agal	-5442
▁Malays	-5443
▁concern	-5444
IT	-5445
▁honor	-5446
ña	-5447
▁flight	-5448
▁studies	-5449
▁Niger	-5450
▁molec	-5451
kat	-5452
▁Even	-5453
▁Sund	-5454
▁shape	-5455
aled	-5456
▁Fel	-5457
He	-5458
▁FC	-5459
itzerland	-5460
▁Captain	-5461
zz	-5462
▁Mind	-5463
ihim	-5464
▁Special	-5465
▁eastern	-5466
▁Mayro	-5467
▁billion	-5468
▁sistema	-5469
▁Aff	-5470
▁Jews	-5471
▁prevent	-5472
▁Biography	-5473
▁manunulat	-5474
▁nagsimula	-5475
Un	-5476
ss	-5477
▁Fern	-5478
▁kabu	-5479
▁Common	-5480
▁industry	-5481
chestra	-5482
ibility	-5483
▁pelikulang	-5484
▁Director	-5485
▁comed	-5486
▁earlier	-5487
▁harm	-5488
alakhang	-5489
▁Fore	-5490
▁resident	-5491
▁Ye	-5492
CO	-5493
▁Mayor	-5494
▁Anth	-5495
ainian	-5496
▁huk	-5497
▁structure	-5498
▁Ari	-5499
istance	-5500
▁Main	-5501
▁moving	-5502
▁Kor	-5503
rogen	-5504
bs	-5505
▁Michel	-5506
adel	-5507
down	-5508
▁damage	-5509
isy	-5510
▁Ball	-5511
▁Israeli	-5512
GB	-5513
▁Unang	-5514
athan	-5515
▁Pennsylvania	-5516
enge	-5517
▁Ret	-5518
▁itinuturing	-5519
yond	-5520
▁Fair	-5521
▁kuwento	-5522
wer	-5523
▁Aqu	-5524
▁driver	-5525
▁Chile	-5526
▁ruled	-5527
silangan	-5528
▁react	-5529
▁Supreme	-5530
▁Italyano	-5531
▁Som	-5532
ui	-5533
▁Modern	-5534
iyal	-5535
astic	-5536
▁hilaga	-5537
▁asp	-5538
▁Jersey	-5539
▁programs	-5540
▁prem	-5541
▁Univers	-5542
kum	-5543
▁salita	-5544
▁division	-5545
▁cultural	-5546
▁Billboard	-5547
▁Moh	-5548
rough	-5549
▁Power	-5550
ype	-5551
itary	-5552
▁corn	-5553
▁Asian	-5554
▁instit	-5555
inirahan	-5556
aysay	-5557
▁bow	-5558
ete	-5559
ahin	-5560
▁path	-5561
▁kingdom	-5562
▁Unibersidad	-5563
▁telebisyon	-5564
▁ones	-5565
▁namatay	-5566
▁Fa	-5567
ging	-5568
rief	-5569
▁sinas	-5570
▁Navy	-5571
▁comput	-5572
▁Kabilang	-5573
othes	-5574
▁noon	-5575
▁Card	-5576
▁frogs	-5577
▁bata	-5578
Ingles	-5579
▁Tokyo	-5580
▁adopt	-5581
▁Singapore	-5582
▁Switzerland	-5583
▁hayop	-5584
▁Sports	-5585
▁primary	-5586
bass	-5587
▁Lomb	-5588
▁planet	-5589
uin	-5590
orrow	-5591
insan	-5592
ele	-5593
▁command	-5594
▁moon	-5595
▁removed	-5596
rie	-5597
orte	-5598
▁Develop	-5599
ía	-5600
vin	-5601
▁editor	-5602
▁reign	-5603
▁Han	-5604
▁historical	-5605
▁nayon	-5606
ser	-5607
▁tan	-5608
▁manlalaro	-5609
bl	-5610
▁Kent	-5611
etisyon	-5612
▁Christmas	-5613
▁Lew	-5614
agdag	-5615
▁cycl	-5616
▁Domin	-5617
▁platform	-5618
aza	-5619
▁Webs	-5620
▁kalaunan	-5621
zen	-5622
icles	-5623
▁economic	-5624
ulpt	-5625
▁Hit	-5626
yayari	-5627
▁runs	-5628
▁Alice	-5629
▁partikular	-5630
▁MP	-5631
▁itinayo	-5632
▁Amerikano	-5633
▁hear	-5634
▁reading	-5635
▁espes	-5636
ori	-5637
▁mut	-5638
▁opt	-5639
arily	-5640
izing	-5641
▁asawa	-5642
ees	-5643
▁piece	-5644
▁therefore	-5645
▁technology	-5646
▁Bud	-5647
arin	-5648
olit	-5649
▁pagsus	-5650
▁academ	-5651
▁web	-5652
▁families	-5653
ée	-5654
▁exact	-5655
▁impro	-5656
▁kadal	-5657
aliksik	-5658
▁silver	-5659
Sh	-5660
aud	-5661
alaan	-5662
▁Banglad	-5663
▁Pot	-5664
cow	-5665
▁BCE	-5666
died	-5667
▁Your	-5668
▁Steve	-5669
▁letters	-5670
▁Live	-5671
▁mention	-5672
▁paaralan	-5673
▁swim	-5674
anning	-5675
elli	-5676
▁imper	-5677
▁succeed	-5678
▁Sultan	-5679
▁palabas	-5680
▁Li	-5681
▁dry	-5682
▁nagkaroon	-5683
▁foss	-5684
obe	-5685
ingu	-5686
roke	-5687
▁pray	-5688
▁islands	-5689
▁Nags	-5690
uly	-5691
▁Hap	-5692
▁sport	-5693
icket	-5694
▁EUN	-5695
▁fund	-5696
ipinanganak	-5697
▁crime	-5698
▁forward	-5699
alam	-5700
icide	-5701
inces	-5702
▁Media	-5703
dd	-5704
dam	-5705
▁Tony	-5706
▁prep	-5707
oni	-5708
▁Ali	-5709
ulugang	-5710
▁inih	-5711
▁init	-5712
▁drink	-5713
▁Master	-5714
ilia	-5715
▁mist	-5716
▁conflict	-5717
▁Office	-5718
▁Pambansang	-5719
▁Corporation	-5720
▁candidate	-5721
▁Pam	-5722
▁Adam	-5723
▁anumang	-5724
▁Adv	-5725
▁madalas	-5726
No	-5727
▁sense	-5728
▁winning	-5729
▁fix	-5730
▁Every	-5731
▁conditions	-5732
▁Circ	-5733
▁enter	-5734
▁ipinanganak	-5735
▁Down	-5736
▁philosopher	-5737
▁wall	-5738
▁papel	-5739
▁rich	-5740
▁trying	-5741
bed	-5742
▁stra	-5743
▁brown	-5744
▁begins	-5745
EN	-5746
▁Loc	-5747
▁Iraq	-5748
▁newspaper	-5749
▁Channel	-5750
ties	-5751
▁numer	-5752
nel	-5753
▁complete	-5754
arp	-5755
▁Kung	-5756
▁rate	-5757
▁acqu	-5758
▁nation	-5759
▁pakikipag	-5760
▁Din	-5761
uhang	-5762
▁prote	-5763
▁controll	-5764
▁function	-5765
ampok	-5766
angers	-5767
▁square	-5768
▁taught	-5769
▁militar	-5770
▁runner	-5771
apons	-5772
▁acting	-5773
▁meters	-5774
▁dat	-5775
▁pamant	-5776
alarawan	-5777
tas	-5778
Mar	-5779
▁ir	-5780
anth	-5781
▁pagkain	-5782
akop	-5783
▁beat	-5784
▁Nep	-5785
▁heat	-5786
▁biggest	-5787
LA	-5788
▁DNA	-5789
▁bound	-5790
▁weight	-5791
▁machine	-5792
▁du	-5793
▁investig	-5794
orter	-5795
▁pressure	-5796
ci	-5797
ukas	-5798
▁limang	-5799
▁pab	-5800
▁seg	-5801
▁Muhammad	-5802
▁YouT	-5803
lers	-5804
orer	-5805
▁rom	-5806
▁native	-5807
usalem	-5808
▁simply	-5809
▁Gallery	-5810
▁evidence	-5811
omy	-5812
▁himp	-5813
▁leaving	-5814
▁Administr	-5815
▁knowledge	-5816
ksyon	-5817
ukasyon	-5818
▁Track	-5819
▁Filipin	-5820
▁serious	-5821
aso	-5822
irmed	-5823
utt	-5824
road	-5825
ourney	-5826
▁punong	-5827
opher	-5828
uti	-5829
▁Ep	-5830
▁doub	-5831
▁railway	-5832
▁kanta	-5833
▁artists	-5834
cious	-5835
▁attacked	-5836
part	-5837
▁Arm	-5838
▁powers	-5839
▁independence	-5840
▁fonts	-5841
:(	-5842
▁carbon	-5843
▁integ	-5844
▁Hard	-5845
iban	-5846
rect	-5847
▁legisl	-5848
▁electr	-5849
▁Hindu	-5850
▁tradisyon	-5851
▁Holy	-5852
▁effects	-5853
▁regions	-5854
Is	-5855
▁mi	-5856
▁Hum	-5857
mo	-5858
bar	-5859
▁Dam	-5860
▁Senator	-5861
▁Observ	-5862
▁spoken	-5863
▁appears	-5864
▁elections	-5865
▁pah	-5866
IC	-5867
▁Moon	-5868
▁Vice	-5869
▁chall	-5870
adi	-5871
▁ess	-5872
▁attention	-5873
ilyo	-5874
▁Son	-5875
▁Marcos	-5876
ictional	-5877
▁pieces	-5878
▁Stephen	-5879
▁Plot	-5880
▁Taiwan	-5881
▁Alexand	-5882
▁Opisyal	-5883
anay	-5884
iminal	-5885
▁kaniya	-5886
burgh	-5887
▁speech	-5888
atig	-5889
uing	-5890
▁awards	-5891
▁immedi	-5892
oring	-5893
▁thin	-5894
▁background	-5895
III	-5896
ondo	-5897
▁historian	-5898
arya	-5899
▁Band	-5900
ration	-5901
▁scored	-5902
▁pagbabago	-5903
▁save	-5904
dess	-5905
▁Nav	-5906
▁giving	-5907
▁Kon	-5908
IV	-5909
▁acid	-5910
▁remains	-5911
▁museum	-5912
ois	-5913
weg	-5914
▁direction	-5915
▁disapp	-5916
▁Norway	-5917
▁pinaka	-5918
▁twenty	-5919
udi	-5920
▁Serb	-5921
▁Winter	-5922
▁Ukrainian	-5923
▁ikalawang	-5924
▁Sav	-5925
▁Coll	-5926
▁Milan	-5927
▁Brother	-5928
▁Pictures	-5929
▁address	-5930
▁pangkalahat	-5931
aysa	-5932
▁helps	-5933
▁escape	-5934
▁compound	-5935
eno	-5936
▁lalo	-5937
▁Oxford	-5938
▁horse	-5939
▁sakit	-5940
ibution	-5941
arang	-5942
ufact	-5943
What	-5944
▁tourn	-5945
▁buried	-5946
▁dynasty	-5947
itter	-5948
"),	-5949
stone	-5950
▁dress	-5951
▁Elst	-5952
▁Ohio	-5953
▁Argentina	-5954
▁Minn	-5955
▁else	-5956
▁search	-5957
▁physical	-5958
▁Greece	-5959
▁Who	-5960
▁enemy	-5961
▁Pransiya	-5962
▁Indonesia	-5963
fall	-5964
iring	-5965
▁Mand	-5966
▁wrong	-5967
intendo	-5968
▁Moscow	-5969
ukod	-5970
▁Lev	-5971
▁atom	-5972
umento	-5973
▁article	-5974
zon	-5975
achel	-5976
ontin	-5977
▁kaysa	-5978
▁beautiful	-5979
▁unit	-5980
▁hero	-5981
▁Walter	-5982
onte	-5983
▁fontsize	-5984
▁Stand	-5985
ections	-5986
▁Marie	-5987
▁mixed	-5988
▁fashion	-5989
▁Championships	-5990
▁Manila	-5991
▁Lim	-5992
▁mayroon	-5993
▁Nazi	-5994
▁napak	-5995
ici	-5996
orf	-5997
cest	-5998
▁pamum	-5999
▁bridge	-6000
▁Antonio	-6001
▁José	-6002
▁positive	-6003
uwa	-6004
chen	-6005
▁matches	-6006
▁Kam	-6007
▁crew	-6008
▁Pad	-6009
▁cred	-6010
▁broke	-6011
▁actually	-6012
▁Um	-6013
▁batay	-6014
▁nagbibigay	-6015
▁municipality	-6016
sey	-6017
endar	-6018
▁objects	-6019
▁training	-6020
con	-6021
stan	-6022
▁pit	-6023
▁muli	-6024
▁security	-6025
ibil	-6026
▁Espanya	-6027
ading	-6028
▁banda	-6029
fo	-6030
ully	-6031
olas	-6032
▁Para	-6033
▁mechan	-6034
▁represented	-6035
bers	-6036
▁DC	-6037
▁Lat	-6038
▁Ga	-6039
▁Him	-6040
▁fifth	-6041
arks	-6042
asure	-6043
rence	-6044
alagay	-6045
▁needs	-6046
▁Su	-6047
▁kinds	-6048
rance	-6049
▁youth	-6050
▁katutub	-6051
▁awit	-6052
cia	-6053
▁Wolf	-6054
▁Tagalog	-6055
chi	-6056
icate	-6057
▁sculpt	-6058
▁individual	-6059
▁census	-6060
▁Conserv	-6061
▁gre	-6062
▁burn	-6063
abib	-6064
▁Tro	-6065
sky	-6066
ghan	-6067
▁Portugal	-6068
▁Nik	-6069
▁kaw	-6070
ugt	-6071
▁disp	-6072
▁Hungarian	-6073
▁guitarist	-6074
oe	-6075
rig	-6076
▁Brook	-6077
AF	-6078
mga	-6079
▁Open	-6080
▁edition	-6081
▁mountains	-6082
enue	-6083
▁Premier	-6084
▁digital	-6085
▁property	-6086
esto	-6087
▁Taylor	-6088
▁Deb	-6089
▁sab	-6090
uther	-6091
vest	-6092
ighter	-6093
▁Ern	-6094
▁Turkey	-6095
▁featured	-6096
▁Lib	-6097
arus	-6098
ivity	-6099
▁Alem	-6100
wing	-6101
▁Beng	-6102
▁qual	-6103
iva	-6104
▁roll	-6105
▁attract	-6106
▁majority	-6107
▁Development	-6108
▁pinal	-6109
▁milyong	-6110
▁wrestler	-6111
▁pig	-6112
▁myth	-6113
▁magp	-6114
eck	-6115
▁bed	-6116
▁Cer	-6117
▁Dak	-6118
ropolitan	-6119
▁Only	-6120
▁naw	-6121
▁branch	-6122
▁discuss	-6123
ugan	-6124
track	-6125
▁pook	-6126
icist	-6127
▁Hans	-6128
ansin	-6129
▁belief	-6130
olved	-6131
▁Finn	-6132
▁Philip	-6133
enez	-6134
▁kid	-6135
▁arrested	-6136
▁touch	-6137
▁Nintendo	-6138
abay	-6139
▁kol	-6140
▁Ele	-6141
last	-6142
▁remain	-6143
▁records	-6144
hero	-6145
real	-6146
atayo	-6147
▁Free	-6148
▁bright	-6149
▁trav	-6150
▁sides	-6151
▁units	-6152
▁Freder	-6153
▁pangulo	-6154
▁musika	-6155
▁sining	-6156
▁Constant	-6157
▁kanluran	-6158
joy	-6159
irap	-6160
▁easily	-6161
▁Project	-6162
aan	-6163
▁Micro	-6164
▁everything	-6165
▁dok	-6166
▁pret	-6167
irt	-6168
▁Mars	-6169
▁houses	-6170
orders	-6171
▁stone	-6172
▁Here	-6173
uugnay	-6174
▁younger	-6175
▁Ut	-6176
▁ens	-6177
▁ilan	-6178
▁nuclear	-6179
▁Lum	-6180
▁sariling	-6181
olars	-6182
porary	-6183
▁silang	-6184
▁directly	-6185
And	-6186
▁sight	-6187
▁Rub	-6188
▁Jenn	-6189
Man	-6190
▁films	-6191
▁nearby	-6192
▁strength	-6193
▁sistemang	-6194
▁Victor	-6195
▁gusali	-6196
▁interp	-6197
▁memory	-6198
onto	-6199
▁Holly	-6200
▁confirmed	-6201
▁Sher	-6202
ession	-6203
▁terror	-6204
▁Books	-6205
mission	-6206
▁sentro	-6207
▁mission	-6208
IA	-6209
].	-6210
▁bought	-6211
▁Rap	-6212
▁Guard	-6213
di	-6214
▁Nan	-6215
ibuted	-6216
▁*	-6217
▁Player	-6218
▁concept	-6219
pped	-6220
▁Abb	-6221
▁kilalang	-6222
ucky	-6223
▁Balt	-6224
▁starts	-6225
idel	-6226
▁chart	-6227
▁makab	-6228
▁purpose	-6229
▁recording	-6230
ablo	-6231
▁Pass	-6232
▁Plan	-6233
▁ilog	-6234
▁jazz	-6235
▁Swiss	-6236
▁Lem	-6237
▁weapons	-6238
ysis	-6239
▁equal	-6240
asyonal	-6241
esc	-6242
oca	-6243
▁Kaz	-6244
▁kulay	-6245
▁completed	-6246
ault	-6247
▁prime	-6248
▁issues	-6249
▁mayor	-6250
erno	-6251
▁thee	-6252
ür	-6253
ibly	-6254
ques	-6255
▁myself	-6256
▁double	-6257
▁inhabit	-6258
eld	-6259
▁grass	-6260
Sp	-6261
▁Vienna	-6262
asiwa	-6263
▁draft	-6264
▁autom	-6265
reement	-6266
▁ends	-6267
oslav	-6268
▁inn	-6269
ayong	-6270
▁pagkakata	-6271
▁era	-6272
▁rac	-6273
enz	-6274
▁labas	-6275
uctions	-6276
▁Dom	-6277
▁bottom	-6278
▁inilabas	-6279
▁tradition	-6280
komuna	-6281
ão	-6282
▁produce	-6283
pet	-6284
▁stations	-6285
▁Republika	-6286
▁pet	-6287
isted	-6288
▁pagtat	-6289
▁rivers	-6290
▁nangangah	-6291
▁kam	-6292
▁kawing	-6293
izes	-6294
▁Afghan	-6295
▁legs	-6296
▁Police	-6297
▁commercial	-6298
▁experience	-6299
▁Eth	-6300
ously	-6301
▁Johann	-6302
▁Brian	-6303
▁looks	-6304
▁draw	-6305
▁learned	-6306
olis	-6307
iform	-6308
▁thir	-6309
▁Belgian	-6310
▁Stanley	-6311
anto	-6312
ibid	-6313
▁Last	-6314
▁flag	-6315
▁ships	-6316
▁greatest	-6317
ordan	-6318
▁Kastila	-6319
more	-6320
▁hat	-6321
▁una	-6322
based	-6323
▁image	-6324
▁student	-6325
CA	-6326
▁products	-6327
▁prins	-6328
▁bodies	-6329
ovak	-6330
▁silangan	-6331
▁literature	-6332
water	-6333
▁Pranses	-6334
▁Kalakhang	-6335
Don	-6336
claim	-6337
▁Clark	-6338
▁plane	-6339
▁Gram	-6340
▁easy	-6341
▁condition	-6342
▁deliver	-6343
▁paggawa	-6344
)"	-6345
ibb	-6346
▁Cost	-6347
▁reviews	-6348
▁iron	-6349
▁measure	-6350
ications	-6351
▁Ross	-6352
▁Sever	-6353
▁Doctor	-6354
▁widely	-6355
▁Turkish	-6356
rees	-6357
▁politics	-6358
▁tumutukoy	-6359
▁NAS	-6360
▁motor	-6361
▁status	-6362
▁singles	-6363
ohol	-6364
▁KOR	-6365
▁defeat	-6366
▁pangalawang	-6367
phia	-6368
▁ipinag	-6369
cription	-6370
▁weather	-6371
VD	-6372
cks	-6373
soft	-6374
▁Head	-6375
▁punt	-6376
▁wound	-6377
:(-	-6378
▁sell	-6379
▁limit	-6380
iac	-6381
▁Walk	-6382
utions	-6383
▁batang	-6384
kanluran	-6385
elligence	-6386
▁economy	-6387
▁finally	-6388
▁forests	-6389
entong	-6390
▁gumawa	-6391
▁Professor	-6392
which	-6393
▁nick	-6394
▁captured	-6395
▁straight	-6396
▁Dark	-6397
▁jump	-6398
▁conqu	-6399
imulang	-6400
▁hurricane	-6401
▁Flight	-6402
▁workers	-6403
ouri	-6404
▁comedian	-6405
ingham	-6406
ablish	-6407
▁connected	-6408
▁activities	-6409
ache	-6410
▁Syd	-6411
atures	-6412
▁ordered	-6413
▁declared	-6414
▁practice	-6415
▁content	-6416
▁Greg	-6417
▁Tri	-6418
▁twice	-6419
▁Haw	-6420
▁Mong	-6421
▁YouTube	-6422
▁citizens	-6423
init	-6424
▁Lyn	-6425
inners	-6426
▁Ottoman	-6427
▁magb	-6428
ahim	-6429
▁versions	-6430
nic	-6431
ban	-6432
uals	-6433
▁Imp	-6434
inoon	-6435
oln	-6436
arters	-6437
▁meeting	-6438
ugu	-6439
agle	-6440
orney	-6441
hedral	-6442
▁Storm	-6443
▁Bos	-6444
▁karagd	-6445
▁flood	-6446
▁Bridge	-6447
▁liqu	-6448
▁chosen	-6449
erbai	-6450
▁kabis	-6451
bang	-6452
▁umi	-6453
idden	-6454
▁iyong	-6455
igen	-6456
▁Album	-6457
atherine	-6458
ieuten	-6459
onds	-6460
▁terr	-6461
▁piano	-6462
▁Ker	-6463
▁Belgium	-6464
We	-6465
agu	-6466
ahanan	-6467
ayanan	-6468
▁guard	-6469
▁recognized	-6470
itaw	-6471
▁kop	-6472
▁edad	-6473
▁Marsh	-6474
▁victory	-6475
▁evil	-6476
itness	-6477
▁Stone	-6478
▁brand	-6479
▁Manc	-6480
▁Batas	-6481
ns	-6482
anyang	-6483
▁judge	-6484
▁Pok	-6485
body	-6486
xygen	-6487
▁cook	-6488
▁street	-6489
▁parliament	-6490
▁dial	-6491
▁nakik	-6492
asin	-6493
▁pull	-6494
udy	-6495
▁quarter	-6496
uzz	-6497
▁Neg	-6498
▁wants	-6499
▁Margar	-6500
▁mathematician	-6501
▁Kennedy	-6502
▁Conference	-6503
ucks	-6504
▁reflect	-6505
▁hy	-6506
▁Web	-6507
▁scientific	-6508
▁Ehip	-6509
▁negos	-6510
▁Carlos	-6511
adelphia	-6512
emic	-6513
rovers	-6514
▁Griyego	-6515
anted	-6516
▁winter	-6517
eon	-6518
▁Ilog	-6519
▁Tun	-6520
▁paid	-6521
▁Dal	-6522
▁Filipino	-6523
eing	-6524
▁taga	-6525
▁replied	-6526
uda	-6527
aron	-6528
▁tuw	-6529
wegian	-6530
▁dagat	-6531
inding	-6532
▁nagsis	-6533
▁Hungary	-6534
▁feature	-6535
▁Vers	-6536
▁huge	-6537
▁sang	-6538
▁constitution	-6539
kst	-6540
▁Hart	-6541
dis	-6542
▁Fle	-6543
▁estim	-6544
osphere	-6545
▁ancest	-6546
▁Andre	-6547
▁cried	-6548
▁Lombard	-6549
▁digmaan	-6550
rot	-6551
▁Kob	-6552
▁scientist	-6553
▁hope	-6554
ographic	-6555
▁Lawrence	-6556
▁specific	-6557
.;	-6558
▁Sax	-6559
ective	-6560
akilala	-6561
▁labor	-6562
▁tip	-6563
▁cam	-6564
izations	-6565
▁opening	-6566
▁nal	-6567
▁repe	-6568
▁share	-6569
▁Azerbai	-6570
▁strange	-6571
ancial	-6572
▁gather	-6573
mont	-6574
riya	-6575
▁Honor	-6576
▁store	-6577
'.	-6578
rison	-6579
aska	-6580
▁floor	-6581
▁fiction	-6582
▁protest	-6583
▁wala	-6584
▁domin	-6585
▁Advent	-6586
▁manufact	-6587
▁warm	-6588
▁thousand	-6589
▁Colomb	-6590
▁earned	-6591
inang	-6592
kumulang	-6593
▁crow	-6594
▁fruit	-6595
▁anime	-6596
▁univers	-6597
▁uma	-6598
▁imag	-6599
▁treatment	-6600
May	-6601
lyn	-6602
▁faith	-6603
▁limited	-6604
▁Cel	-6605
▁Sky	-6606
▁glass	-6607
▁Vis	-6608
▁serve	-6609
amantalang	-6610
adow	-6611
▁etc	-6612
ester	-6613
▁mill	-6614
▁Pedro	-6615
akit	-6616
▁Fac	-6617
▁planned	-6618
EC	-6619
▁Ext	-6620
▁Nich	-6621
és	-6622
arn	-6623
▁Ark	-6624
▁sir	-6625
▁Board	-6626
▁kahulugan	-6627
▁assistant	-6628
▁katangian	-6629
▁worldwide	-6630
▁THM	-6631
▁Sydney	-6632
▁nagm	-6633
ambak	-6634
▁Bagong	-6635
orta	-6636
▁bron	-6637
outheast	-6638
aste	-6639
▁pack	-6640
▁referred	-6641
akda	-6642
▁Aut	-6643
▁gan	-6644
▁lake	-6645
ishes	-6646
liest	-6647
ieutenant	-6648
▁inhabitants	-6649
▁programming	-6650
▁Nagk	-6651
▁claimed	-6652
▁parties	-6653
▁Christopher	-6654
evin	-6655
▁lit	-6656
▁Maa	-6657
▁Season	-6658
▁perfect	-6659
▁É	-6660
▁opin	-6661
▁nagsas	-6662
▁kamatayan	-6663
▁kaso	-6664
▁rose	-6665
▁perhaps	-6666
▁desc	-6667
▁comic	-6668
▁agreed	-6669
▁Coast	-6670
usa	-6671
akter	-6672
▁Knight	-6673
▁Bangladesh	-6674
olt	-6675
ibay	-6676
▁Age	-6677
iders	-6678
▁solo	-6679
▁racing	-6680
▁soul	-6681
▁Ikalawang	-6682
ED	-6683
▁Real	-6684
▁halip	-6685
▁label	-6686
▁tur	-6687
anny	-6688
onian	-6689
▁Karl	-6690
▁Argentine	-6691
▁Gabri	-6692
▁conserv	-6693
agaw	-6694
▁chance	-6695
▁paghah	-6696
▁Leb	-6697
▁Ever	-6698
▁Cav	-6699
▁growing	-6700
▁Malaysia	-6701
▁pinagmulan	-6702
anao	-6703
▁perman	-6704
uki	-6705
▁Liter	-6706
▁Douglas	-6707
ksiyon	-6708
▁flow	-6709
▁trial	-6710
▁kasapi	-6711
▁Foreign	-6712
▁Norwegian	-6713
▁Lewis	-6714
▁completely	-6715
▁naninirahan	-6716
uwag	-6717
ailan	-6718
▁Heart	-6719
▁lands	-6720
▁Federation	-6721
▁earthqu	-6722
▁Michigan	-6723
but	-6724
▁surpr	-6725
▁Aleman	-6726
▁reasons	-6727
▁artikulong	-6728
▁Rose	-6729
arat	-6730
uage	-6731
▁Anna	-6732
▁cars	-6733
AN	-6734
▁kompetisyon	-6735
gu	-6736
▁Gord	-6737
alysis	-6738
▁plans	-6739
▁happens	-6740
▁SC	-6741
organ	-6742
▁thick	-6743
▁kultura	-6744
▁competed	-6745
▁Ford	-6746
▁happy	-6747
▁Centre	-6748
▁spring	-6749
OC	-6750
▁Denmark	-6751
▁ded	-6752
▁pra	-6753
▁kalak	-6754
▁songwriter	-6755
▁pup	-6756
▁peak	-6757
▁pampubl	-6758
▁creation	-6759
▁engineering	-6760
heng	-6761
esota	-6762
▁levels	-6763
asyo	-6764
mat	-6765
▁Chem	-6766
▁palig	-6767
▁mahalagang	-6768
rang	-6769
▁Tra	-6770
▁Bible	-6771
▁upper	-6772
▁slowly	-6773
abibilangan	-6774
▁komuna	-6775
▁unknown	-6776
▁screenwriter	-6777
▁gumagamit	-6778
undin	-6779
▁Philadelphia	-6780
▁sky	-6781
▁Simbahan	-6782
TER	-6783
anang	-6784
estic	-6785
▁materials	-6786
igg	-6787
igil	-6788
▁rito	-6789
▁answer	-6790
▁contain	-6791
▁subalit	-6792
▁’	-6793
atao	-6794
▁mart	-6795
▁linya	-6796
▁ocean	-6797
▁sumunod	-6798
▁generation	-6799
kod	-6800
▁Tit	-6801
▁flat	-6802
▁girls	-6803
akatawan	-6804
▁Ancient	-6805
▁picture	-6806
▁copies	-6807
▁modernong	-6808
agement	-6809
▁distrito	-6810
▁construction	-6811
arl	-6812
▁Tak	-6813
ugang	-6814
atar	-6815
▁Pur	-6816
▁slight	-6817
▁Bush	-6818
▁spoke	-6819
▁captain	-6820
▁associated	-6821
▁enjoy	-6822
▁increased	-6823
▁Progr	-6824
▁Alfred	-6825
roc	-6826
anim	-6827
▁Lag	-6828
▁rat	-6829
▁scene	-6830
▁Portugu	-6831
olly	-6832
▁beyond	-6833
die	-6834
▁Champion	-6835
▁Dog	-6836
entle	-6837
ipped	-6838
▁dies	-6839
▁Sciences	-6840
▁column	-6841
▁gawain	-6842
▁provide	-6843
▁responsible	-6844
▁Billy	-6845
▁Der	-6846
ahagi	-6847
▁failed	-6848
▁recent	-6849
cha	-6850
omm	-6851
▁sick	-6852
▁crash	-6853
▁Dick	-6854
room	-6855
▁ini	-6856
▁kr	-6857
perador	-6858
▁mam	-6859
incoln	-6860
▁caught	-6861
▁ibabaw	-6862
uon	-6863
▁Bibl	-6864
▁fellow	-6865
▁Katoliko	-6866
ailed	-6867
▁Inf	-6868
▁flu	-6869
▁hors	-6870
▁truth	-6871
▁Minnesota	-6872
▁Buddh	-6873
▁split	-6874
▁Palace	-6875
▁sumali	-6876
▁painting	-6877
▁council	-6878
▁Portuguese	-6879
▁Anthony	-6880
▁Cur	-6881
inton	-6882
▁Treat	-6883
iop	-6884
▁Luz	-6885
▁Jess	-6886
▁Affairs	-6887
oration	-6888
▁evening	-6889
▁Cambridge	-6890
log	-6891
▁monarch	-6892
ín	-6893
▁Brad	-6894
▁snow	-6895
ahanap	-6896
icient	-6897
▁listed	-6898
▁trains	-6899
▁decision	-6900
▁mapag	-6901
uber	-6902
▁kakay	-6903
▁Grammy	-6904
▁Station	-6905
bro	-6906
umin	-6907
▁dim	-6908
▁lif	-6909
▁bacter	-6910
▁Manipur	-6911
▁ability	-6912
▁festival	-6913
osite	-6914
▁tunay	-6915
▁arrived	-6916
▁babaeng	-6917
▁Missouri	-6918
▁Gitnang	-6919
clop	-6920
▁Events	-6921
▁Memorial	-6922
▁physicist	-6923
▁valley	-6924
▁transfer	-6925
TS	-6926
usang	-6927
▁Dream	-6928
▁Engine	-6929
▁Toronto	-6930
▁tra	-6931
▁Stat	-6932
▁illustr	-6933
zh	-6934
ocol	-6935
▁sort	-6936
▁Heavy	-6937
illo	-6938
▁batt	-6939
▁forth	-6940
prod	-6941
▁exhib	-6942
▁votes	-6943
iri	-6944
▁Build	-6945
▁tinawag	-6946
col	-6947
olid	-6948
▁allows	-6949
iki	-6950
▁attended	-6951
▁Father	-6952
alita	-6953
▁Jacob	-6954
▁graduated	-6955
▁Jordan	-6956
▁lupain	-6957
▁Lincoln	-6958
▁Deputy	-6959
▁oxygen	-6960
▁centuries	-6961
▁couple	-6962
vi	-6963
▁appl	-6964
▁progress	-6965
▁Gon	-6966
▁composed	-6967
▁doll	-6968
▁Apple	-6969
▁entertain	-6970
FC	-6971
▁Roll	-6972
eller	-6973
verse	-6974
▁Vlad	-6975
▁Kelly	-6976
▁kinabibilangan	-6977
limp	-6978
▁atm	-6979
oster	-6980
▁Burn	-6981
▁Sus	-6982
▁Formula	-6983
▁Patrick	-6984
▁humigit	-6985
▁concert	-6986
▁ready	-6987
inian	-6988
ucted	-6989
▁Tenn	-6990
▁pagkakataon	-6991
posed	-6992
pson	-6993
hr	-6994
gio	-6995
▁Venez	-6996
▁extra	-6997
▁maintain	-6998
bourne	-6999
▁fictional	-7000
▁Run	-7001
▁Dist	-7002
ibigan	-7003
orpor	-7004
▁owner	-7005
▁stated	-7006
▁patungo	-7007
▁kabisera	-7008
▁Observatory	-7009
ensya	-7010
obyet	-7011
araang	-7012
▁larangan	-7013
▁particularly	-7014
ipiko	-7015
▁Simon	-7016
▁Hurricane	-7017
awi	-7018
anton	-7019
▁priest	-7020
▁Alemanya	-7021
▁Ten	-7022
▁Examp	-7023
▁Broadcast	-7024
olohiyang	-7025
▁evolution	-7026
iny	-7027
▁prec	-7028
▁Bir	-7029
since	-7030
WA	-7031
▁drive	-7032
▁urban	-7033
▁critics	-7034
sex	-7035
that	-7036
▁broken	-7037
▁contest	-7038
▁karakter	-7039
▁Geography	-7040
▁Microsoft	-7041
▁personality	-7042
ifer	-7043
▁Hapones	-7044
▁pattern	-7045
▁Matapos	-7046
gil	-7047
▁magn	-7048
▁Jerry	-7049
▁gained	-7050
▁height	-7051
▁sounds	-7052
▁display	-7053
▁previously	-7054
unal	-7055
▁Again	-7056
▁Journal	-7057
▁Riz	-7058
▁Sym	-7059
▁hur	-7060
▁sons	-7061
former	-7062
SR	-7063
andon	-7064
▁cras	-7065
▁clean	-7066
asalita	-7067
worth	-7068
▁focus	-7069
▁aking	-7070
onya	-7071
▁Silangang	-7072
▁kadalasang	-7073
▁Jay	-7074
standing	-7075
▁Website	-7076
▁Manchester	-7077
▁liked	-7078
▁achiev	-7079
▁nagbigay	-7080
▁Sem	-7081
▁Crit	-7082
▁establish	-7083
aal	-7084
▁Primary	-7085
elve	-7086
▁Bird	-7087
▁Sound	-7088
▁fresh	-7089
▁Rights	-7090
▁script	-7091
▁emperor	-7092
▁Bart	-7093
ismong	-7094
igi	-7095
where	-7096
▁Technology	-7097
imo	-7098
▁mm	-7099
▁Ori	-7100
▁vice	-7101
▁provided	-7102
▁cloud	-7103
▁Prix	-7104
▁Allen	-7105
▁throne	-7106
▁Hawa	-7107
▁spect	-7108
▁Egyptian	-7109
box	-7110
▁uns	-7111
▁forg	-7112
▁proses	-7113
ilton	-7114
▁send	-7115
aysayang	-7116
night	-7117
▁pinap	-7118
▁Silver	-7119
▁section	-7120
▁Ath	-7121
▁gar	-7122
▁manan	-7123
▁strugg	-7124
▁tournament	-7125
yg	-7126
▁airport	-7127
▁isinulat	-7128
uation	-7129
▁nakapag	-7130
▁sam	-7131
▁Writ	-7132
▁Tropical	-7133
▁Kings	-7134
▁Movie	-7135
▁standing	-7136
yrics	-7137
▁diagn	-7138
▁kandid	-7139
▁medicine	-7140
▁Kle	-7141
TA	-7142
▁solid	-7143
abaihan	-7144
▁halaga	-7145
▁alc	-7146
▁Transport	-7147
wick	-7148
▁Hesus	-7149
▁kalag	-7150
rier	-7151
▁Shah	-7152
▁Champions	-7153
▁mangg	-7154
ungle	-7155
▁semi	-7156
▁sev	-7157
▁Shin	-7158
▁Chair	-7159
iper	-7160
▁Eric	-7161
apatan	-7162
▁agham	-7163
▁complications	-7164
▁makas	-7165
oda	-7166
▁Alan	-7167
▁Sobyet	-7168
▁Ivan	-7169
encies	-7170
▁simpl	-7171
▁deaths	-7172
▁damag	-7173
▁trop	-7174
▁officers	-7175
!"	-7176
uka	-7177
▁response	-7178
▁Arn	-7179
▁rapid	-7180
uela	-7181
▁Papa	-7182
▁Heritage	-7183
▁neighbor	-7184
SA	-7185
▁Cart	-7186
▁boat	-7187
▁union	-7188
▁Samuel	-7189
▁resulta	-7190
▁continue	-7191
▁Pant	-7192
ensity	-7193
▁Birth	-7194
▁Kevin	-7195
▁Peace	-7196
ér	-7197
▁Sn	-7198
▁Laur	-7199
▁arrang	-7200
▁safety	-7201
▁Iranian	-7202
▁Theatre	-7203
papawid	-7204
▁Olimp	-7205
▁Comics	-7206
▁Hitler	-7207
araw	-7208
▁Harris	-7209
▁Sic	-7210
▁lack	-7211
ailand	-7212
▁serving	-7213
▁thinking	-7214
▁migr	-7215
▁adj	-7216
ocked	-7217
▁Croat	-7218
▁Roger	-7219
▁maaari	-7220
agsak	-7221
▁managed	-7222
▁Cass	-7223
▁huli	-7224
antong	-7225
▁nakap	-7226
▁patuloy	-7227
cop	-7228
▁begin	-7229
anggol	-7230
▁cabin	-7231
▁nakas	-7232
resp	-7233
uins	-7234
▁feed	-7235
▁illeg	-7236
▁policy	-7237
▁Cre	-7238
▁brief	-7239
▁Indust	-7240
▁prisoners	-7241
raf	-7242
upa	-7243
▁issue	-7244
▁staff	-7245
▁Carter	-7246
▁academic	-7247
eline	-7248
▁sanhi	-7249
▁pagkakaroon	-7250
orig	-7251
▁safe	-7252
▁divor	-7253
▁growth	-7254
▁Further	-7255
▁comment	-7256
▁Between	-7257
aco	-7258
host	-7259
inong	-7260
▁advent	-7261
▁computers	-7262
neum	-7263
▁Halimbawa	-7264
odox	-7265
rated	-7266
▁bund	-7267
▁habit	-7268
▁Bib	-7269
▁magt	-7270
▁pilosop	-7271
fe	-7272
▁Yug	-7273
oured	-7274
▁Front	-7275
▁tauhan	-7276
Ipin	-7277
alakbay	-7278
▁hall	-7279
▁intern	-7280
▁Field	-7281
▁catch	-7282
▁slave	-7283
▁Turn	-7284
ör	-7285
ataan	-7286
▁Pala	-7287
▁subst	-7288
▁trust	-7289
▁increase	-7290
akat	-7291
aping	-7292
inter	-7293
▁worship	-7294
▁suicide	-7295
▁Maur	-7296
▁Business	-7297
▁hurt	-7298
▁revolution	-7299
▁Jam	-7300
▁thousands	-7301
▁VI	-7302
oves	-7303
▁Earl	-7304
▁Pamp	-7305
▁kole	-7306
▁Fried	-7307
▁greater	-7308
uot	-7309
atibong	-7310
▁kw	-7311
▁Davis	-7312
▁extrem	-7313
▁refers	-7314
▁library	-7315
rell	-7316
▁crown	-7317
fecture	-7318
▁variety	-7319
én	-7320
low	-7321
▁Dh	-7322
ayashi	-7323
▁gulang	-7324
▁singing	-7325
▁violence	-7326
▁Bruce	-7327
▁basic	-7328
▁Zh	-7329
▁heav	-7330
iriwang	-7331
western	-7332
▁opposite	-7333
▁required	-7334
state	-7335
unsad	-7336
▁Bull	-7337
▁dangerous	-7338
▁selected	-7339
boy	-7340
bassador	-7341
▁dahilan	-7342
▁emerg	-7343
▁Imperyong	-7344
esp	-7345
▁organized	-7346
isms	-7347
▁Vinc	-7348
▁highly	-7349
▁stroke	-7350
▁alph	-7351
▁cool	-7352
apes	-7353
▁boys	-7354
▁Native	-7355
▁exchange	-7356
▁Ont	-7357
unuan	-7358
▁bear	-7359
▁Princ	-7360
▁programa	-7361
▁Jerusalem	-7362
▁authority	-7363
bus	-7364
mus	-7365
ugby	-7366
▁showing	-7367
▁districts	-7368
▁Nam	-7369
▁Frederick	-7370
▁Kobayashi	-7371
CC	-7372
▁Vic	-7373
▁Panl	-7374
▁impr	-7375
Ipinanganak	-7376
▁norm	-7377
▁risk	-7378
▁fully	-7379
▁depend	-7380
▁headqu	-7381
▁Russell	-7382
▁location	-7383
ogether	-7384
▁tahanan	-7385
▁accepted	-7386
▁conductor	-7387
away	-7388
ogle	-7389
▁stayed	-7390
▁journey	-7391
▁Children	-7392
▁ekonomiya	-7393
▁Collect	-7394
▁goddess	-7395
▁gall	-7396
▁nakal	-7397
▁freedom	-7398
▁electronic	-7399
isf	-7400
▁Bishop	-7401
don	-7402
▁Kasama	-7403
▁ako	-7404
▁Monte	-7405
▁Deaths	-7406
▁Community	-7407
▁Woman	-7408
TC	-7409
akan	-7410
uous	-7411
▁sources	-7412
▁operating	-7413
aser	-7414
oba	-7415
▁Roc	-7416
▁nort	-7417
▁Dagat	-7418
▁distinct	-7419
▁tat	-7420
▁sail	-7421
▁pilot	-7422
▁...	-7423
▁tail	-7424
▁bagyo	-7425
▁vocal	-7426
▁concent	-7427
▁Thailand	-7428
▁dalawa	-7429
▁nanalo	-7430
Oh	-7431
▁Finland	-7432
▁illness	-7433
▁universe	-7434
▁Dead	-7435
▁Video	-7436
▁Aw	-7437
unga	-7438
▁manga	-7439
▁brothers	-7440
▁compared	-7441
▁Six	-7442
char	-7443
▁Kum	-7444
▁ark	-7445
▁Friend	-7446
ormasyon	-7447
mal	-7448
anne	-7449
▁percent	-7450
▁adopted	-7451
▁necessary	-7452
anyol	-7453
uting	-7454
▁funct	-7455
▁activity	-7456
▁Quezon	-7457
▁Huk	-7458
▁modelo	-7459
▁Mig	-7460
▁follows	-7461
DP	-7462
osm	-7463
etta	-7464
▁aktor	-7465
▁dropped	-7466
▁execut	-7467
▁Margaret	-7468
▁purs	-7469
iser	-7470
▁aired	-7471
▁immediately	-7472
▁Tol	-7473
▁shop	-7474
▁Short	-7475
och	-7476
▁FM	-7477
▁MAS	-7478
ecting	-7479
▁suffered	-7480
▁Hollywood	-7481
▁Key	-7482
▁kon	-7483
▁indibid	-7484
rive	-7485
uits	-7486
▁Ferdin	-7487
▁Mill	-7488
▁apart	-7489
oen	-7490
onent	-7491
▁describe	-7492
▁controvers	-7493
orph	-7494
▁bil	-7495
▁doubt	-7496
▁Santos	-7497
▁Security	-7498
▁mentioned	-7499
▁presented	-7500
izumi	-7501
▁stadium	-7502
▁scholars	-7503
▁Desert	-7504
sm	-7505
lete	-7506
later	-7507
insula	-7508
ipan	-7509
▁hyp	-7510
otten	-7511
▁Poké	-7512
▁pans	-7513
▁Ehipto	-7514
▁circum	-7515
▁trabaho	-7516
agen	-7517
▁baby	-7518
▁wish	-7519
▁crowd	-7520
▁Od	-7521
▁Region	-7522
▁Territ	-7523
enda	-7524
lets	-7525
▁Adams	-7526
▁garden	-7527
▁kabuuang	-7528
▁arts	-7529
ithuan	-7530
▁slaves	-7531
▁tennis	-7532
▁expected	-7533
bes	-7534
▁sla	-7535
▁everyone	-7536
▁Airl	-7537
▁counter	-7538
▁reaction	-7539
▁chap	-7540
bin	-7541
ulog	-7542
Ph	-7543
ptoms	-7544
▁Gard	-7545
▁ranked	-7546
▁offered	-7547
imir	-7548
life	-7549
▁nom	-7550
▁Naging	-7551
hard	-7552
▁ruler	-7553
▁situation	-7554
▁statistics	-7555
▁additional	-7556
▁difference	-7557
▁Afghanistan	-7558
otic	-7559
▁virus	-7560
▁Organization	-7561
fish	-7562
isters	-7563
▁Madrid	-7564
▁pir	-7565
▁Benj	-7566
▁Hell	-7567
▁Where	-7568
▁walls	-7569
ergy	-7570
iago	-7571
▁Beach	-7572
emen	-7573
eton	-7574
▁reform	-7575
▁bran	-7576
▁Hills	-7577
▁revealed	-7578
▁mental	-7579
▁Ontario	-7580
▁contact	-7581
▁designer	-7582
asya	-7583
▁Araw	-7584
▁resc	-7585
▁fine	-7586
▁Matatagpuan	-7587
eness	-7588
▁Miller	-7589
▁pictures	-7590
aha	-7591
inea	-7592
▁buy	-7593
▁fields	-7594
▁renamed	-7595
▁lic	-7596
▁mel	-7597
active	-7598
▁worth	-7599
▁notable	-7600
▁Sid	-7601
▁Mountain	-7602
▁poll	-7603
▁Ronald	-7604
▁Labour	-7605
▁AM	-7606
▁Salv	-7607
▁bark	-7608
▁mamm	-7609
▁favor	-7610
▁quant	-7611
▁hits	-7612
oyd	-7613
▁bumalik	-7614
▁instant	-7615
▁presence	-7616
pir	-7617
▁ce	-7618
▁Agr	-7619
lying	-7620
▁household	-7621
▁Sud	-7622
bisyo	-7623
abad	-7624
▁Gordon	-7625
▁filled	-7626
▁marami	-7627
▁Vo	-7628
othy	-7629
▁Mess	-7630
▁firm	-7631
▁Labor	-7632
▁sapag	-7633
▁require	-7634
essed	-7635
▁puno	-7636
ambal	-7637
▁Once	-7638
▁neut	-7639
▁strik	-7640
▁sweet	-7641
▁administration	-7642
▁metres	-7643
▁Railway	-7644
▁Cruz	-7645
▁daan	-7646
▁diplomat	-7647
yu	-7648
isp	-7649
▁Dun	-7650
enburg	-7651
▁Santo	-7652
▁bronze	-7653
bul	-7654
▁none	-7655
▁Temple	-7656
orya	-7657
▁marry	-7658
▁injured	-7659
▁proposed	-7660
anib	-7661
▁Howard	-7662
▁kasunod	-7663
fully	-7664
▁climb	-7665
▁Marvel	-7666
▁learning	-7667
iat	-7668
uerto	-7669
▁Test	-7670
▁breath	-7671
▁nilang	-7672
▁actions	-7673
adr	-7674
▁baybay	-7675
inaw	-7676
netic	-7677
▁bato	-7678
▁pian	-7679
come	-7680
otte	-7681
▁sad	-7682
▁Tang	-7683
▁teach	-7684
emony	-7685
father	-7686
▁affected	-7687
eus	-7688
▁nai	-7689
▁Sina	-7690
▁pampublikong	-7691
▁Fall	-7692
▁Junior	-7693
▁kasalukuyan	-7694
▁Lion	-7695
▁sag	-7696
▁Point	-7697
▁Rain	-7698
▁holds	-7699
▁soldier	-7700
▁Rick	-7701
▁overall	-7702
▁Louisiana	-7703
▁pinakamataas	-7704
enes	-7705
▁Creek	-7706
sur	-7707
▁Area	-7708
▁Nagt	-7709
▁feeling	-7710
▁inspired	-7711
▁influenced	-7712
▁Kl	-7713
enteng	-7714
▁Jimmy	-7715
▁depart	-7716
▁Hospital	-7717
▁Pablo	-7718
▁rapper	-7719
anak	-7720
text	-7721
▁Mons	-7722
▁drop	-7723
▁rare	-7724
▁spot	-7725
▁partner	-7726
▁katutubong	-7727
antasy	-7728
▁Berg	-7729
▁rise	-7730
▁teor	-7731
▁device	-7732
she	-7733
▁gitna	-7734
▁tekn	-7735
▁controlled	-7736
▁Johnny	-7737
▁clothes	-7738
yari	-7739
▁democr	-7740
▁karera	-7741
▁bagaman	-7742
▁alongside	-7743
▁isk	-7744
▁traff	-7745
▁seats	-7746
olph	-7747
▁Call	-7748
▁Conc	-7749
New	-7750
elsh	-7751
zona	-7752
▁Chamber	-7753
ippi	-7754
▁constit	-7755
▁Confeder	-7756
▁philosophy	-7757
ea	-7758
▁noted	-7759
Dec	-7760
alia	-7761
rome	-7762
alian	-7763
▁trouble	-7764
▁Imperial	-7765
▁pinangalan	-7766
▁Ryan	-7767
▁coal	-7768
▁Publ	-7769
▁mine	-7770
▁scar	-7771
▁pinags	-7772
▁posisyon	-7773
apped	-7774
illing	-7775
▁pagka	-7776
▁custom	-7777
▁longest	-7778
acle	-7779
▁senior	-7780
▁Catherine	-7781
▁alive	-7782
▁Ministry	-7783
▁Yugoslav	-7784
lak	-7785
arte	-7786
book	-7787
ikling	-7788
roit	-7789
▁Cape	-7790
▁wave	-7791
▁teeth	-7792
antay	-7793
▁Luzon	-7794
klin	-7795
▁pneum	-7796
abe	-7797
▁Stock	-7798
▁Tsino	-7799
▁interpret	-7800
imugang	-7801
▁Sunday	-7802
▁Background	-7803
ven	-7804
▁Orth	-7805
▁Danish	-7806
▁Express	-7807
▁temple	-7808
▁torn	-7809
▁user	-7810
▁Diego	-7811
▁drugs	-7812
▁obtain	-7813
▁entry	-7814
▁restr	-7815
▁HY	-7816
▁PA	-7817
▁motion	-7818
EW	-7819
vard	-7820
▁Lam	-7821
▁passengers	-7822
iology	-7823
▁Pierre	-7824
▁propes	-7825
▁Saudi	-7826
▁Google	-7827
▁tala	-7828
▁ax	-7829
▁ha	-7830
▁ts	-7831
ipon	-7832
▁pinan	-7833
▁magiging	-7834
▁subs	-7835
▁Nev	-7836
▁note	-7837
▁tries	-7838
▁manner	-7839
▁	-7840
a	-7841
e	-7842
n	-7843
i	-7844
t	-7845
o	-7846
s	-7847
r	-7848
l	-7849
h	-7850
g	-7851
d	-7852
m	-7853
u	-7854
c	-7855
p	-7856
y	-7857
f	-7858
b	-7859
,	-7860
w	-7861
.	-7862
k	-7863
|	-7864
1	-7865
v	-7866
0	-7867
2	-7868
9	-7869
A	-7870
S	-7871
T	-7872
M	-7873
I	-7874
C	-7875
-	-7876
P	-7877
B	-7878
)	-7879
(	-7880
E	-7881
6	-7882
8	-7883
H	-7884
R	-7885
3	-7886
N	-7887
5	-7888
7	-7889
4	-7890
L	-7891
D	-7892
F	-7893
"	-7894
G	-7895
K	-7896
=	-7897
O	-7898
W	-7899
J	-7900
:	-7901
x	-7902
z	-7903
–	-7904
'	-7905
U	-7906
—	-7907
j	-7908
V	-7909
#	-7910
;	-7911
q	-7912
Y	-7913
’	-7914
“	-7915
”	-7916
Z	-7917
/	-7918
é	-7919
%	-7920
Q	-7921
!	-7922
X	-7923
?	-7924
&	-7925
]	-7926
[	-7927
á	-7928
ó	-7929
í	-7930
+	-7931
$	-7932
ö	-7933
ü	-7934
ō	-7935
ñ	-7936
è	-7937
ä	-7938
ā	-7939
*	-7940
‘	-7941
°	-7942
ç	-7943
_	-7944
ć	-7945
а	-7946
ú	-7947
š	-7948
â	-7949
о	-7950
}	-7951
à	-7952
и	-7953
É	-7954
ا	-7955
ô	-7956
ū	-7957
ã	-7958
е	-7959
н	-7960
ł	-7961
р	-7962
~	-7963
с	-7964
č	-7965
ل	-7966
ë	-7967
−	-7968
т	-7969
в	-7970
å	-7971
к	-7972
ī	-7973
•	-7974
ı	-7975
{	-7976
×	-7977
ø	-7978
л	-7979
َ	-7980
£	-7981
ß	-7982
†	-7983
α	-7984
ˈ	-7985
ê	-7986
ر	-7987
م	-7988
æ	-7989
ş	-7990
ن	-7991
^	-7992
